/**
  ******************************************************************************
  * @file    network_data_params.c
  * @author  AST Embedded Analytics Research Platform
  * @date    Wed Oct  5 16:23:24 2022
  * @brief   AI Tool Automatic Code Generator for Embedded NN computing
  ******************************************************************************
  * Copyright (c) 2022 STMicroelectronics.
  * All rights reserved.
  *
  * This software is licensed under terms that can be found in the LICENSE file
  * in the root directory of this software component.
  * If no LICENSE file comes with this software, it is provided AS-IS.
  ******************************************************************************
  */

#include "network_data_params.h"


/**  Activations Section  ****************************************************/
ai_handle g_network_activations_table[1 + 2] = {
  AI_HANDLE_PTR(AI_MAGIC_MARKER),
  AI_HANDLE_PTR(NULL),
  AI_HANDLE_PTR(AI_MAGIC_MARKER),
};




/**  Weights Section  ********************************************************/
AI_ALIGNED(32)
const ai_u64 s_network_weights_array_u64[44161] = {
  0xbd57b9f9bd7a1030U, 0x3d1e27863dcd7f80U, 0x3ded48a4bdadf446U, 0x3db5a329be011ea0U,
  0x3d02f6f53c7450a5U, 0x3da412a73dbc972cU, 0xba33b93a3cdd35d3U, 0x390668dcbdf9fbccU,
  0xbe4fd0e9bdbce2ecU, 0x3e21d0fb3d942a40U, 0xbc7f24923e2e7c75U, 0xbe64ef56bcde9aa2U,
  0x3db6f92dbdc95445U, 0x3ca544ffbd0b0e1eU, 0xbda5cc8c3d9e778eU, 0xbde340f73ad492fcU,
  0xbdbc67a03d07a9c6U, 0xbc10ce223dc98eb7U, 0xbdc0486f3ccc1de2U, 0x3caa6e5c3dc01489U,
  0xbdb5c257be28ad55U, 0x3e09b7453dc522ecU, 0x3daaf031bd9bd89fU, 0x3dbac0a4be326da6U,
  0xbe15344cbd0f4214U, 0x3d8685433dbaaa85U, 0x3d59933c3e1b3e06U, 0xbe303dc2bd3207a5U,
  0xbdb5aee1bdb55e8bU, 0xbe1f4a0e3d98ba41U, 0x3e1d56463d8fc0c2U, 0xbe7578cfbdcbdf90U,
  0xbe163f09bd3c10e8U, 0xbd9fa2df3d491001U, 0x3dd0b84d3c0001eeU, 0xbd3a9f353e0db5a3U,
  0xbe77c6b9be19bcd1U, 0x3d9eeeab3c055f17U, 0xbb5b453c3e15f84aU, 0x3ce750d43dec4dc2U,
  0x3d8f0b27bd98dfeeU, 0x3e22bb173e04f2ccU, 0xbe0a5ef2bdda3626U, 0x3e33db243d3a1430U,
  0xbc8638003d40e30dU, 0xbe41cdc7be05579fU, 0x3b7cab80bc828450U, 0xbc4e0462bc940d95U,
  0x3dca19633e42d02fU, 0x3b9976efbda202a5U, 0xbde08044bc0ade72U, 0xbe5891dcbcb73300U,
  0xbd0242a6be27514cU, 0xbde4a6633cebc79bU, 0xbe27d8f13ce017beU, 0x3dda40c73aa50f34U,
  0x3d592b95bd77cc62U, 0xbc9f2d7a3df2af79U, 0x3dcc452a3ba83f71U, 0x3e1f260ebe5a29f8U,
  0x3cd32c503d8e2eefU, 0xbc7c411e3cb6c65bU, 0xbcaa93933e1c6df1U, 0xbe63e36c3d3e21b0U,
  0xbd600dd13e58d7abU, 0x3db588943d6f9046U, 0x3dcdf0ce3db1828eU, 0xbe13a2d6bb361bdaU,
  0xbe2355103b9639ddU, 0x3ded555abe240af7U, 0x3e4f48823a3f5f16U, 0xbd9c12a6bc60e9eeU,
  0x3d983b91be82e0f0U, 0xbe66e4e2bdd35acfU, 0xbe37b6a03e1bb0caU, 0x3e38550e3dc6a053U,
  0xbcc4e5c7bcebe5a5U, 0xbe09fca7bd608a19U, 0x3dd68f07be03f1daU, 0x3e105b6fbe2b46bfU,
  0xbcafc3243dc0f377U, 0xbc5b0da9bd147530U, 0xbd90c3fdbbcbc678U, 0x3e247721bd5c75d1U,
  0xbdd33c14bd0dc6bcU, 0x3e0755ad3e36dae4U, 0xbd841c22be4e2aaaU, 0xbde0771f3ca257d0U,
  0xbc1e883b3e7836ecU, 0x3e514923be5385b0U, 0xbd973af0bd8454a1U, 0xbd9584d13d89834eU,
  0x3e4527a8bd83c963U, 0xbdc5d5c3bdb45ab1U, 0xbe07399c3e9d66dcU, 0x3e653e173d924ad9U,
  0xbe2ee7163dd8d83cU, 0xbdb829ea3e007276U, 0x3dd3a56d3d0a18a8U, 0x3d0ba3a6bdb6862fU,
  0xbdf975483e6fef37U, 0x3b91143b3d7beabeU, 0xbd90af99bd5592acU, 0xbdef1b0e3cf87f83U,
  0x3e6adb573c55279dU, 0x3cb4c3dcbd75ade5U, 0xbdc672a93e20323dU, 0x3cfa985f3d8ff95bU,
  0x3d9ff09fbd233c29U, 0x3d7320b13e199c6dU, 0x3e1349b43d17a86fU, 0xbd255da2bdd7bd5dU,
  0x3bfcc4403def93bfU, 0x3d82736dbe067671U, 0xbe000d7d3dba5f59U, 0xbdf5202b3cff33c4U,
  0xbdeb673a3d8afaa5U, 0x3b73509b3d9cb58fU, 0x3dc26f42bdc61f89U, 0x3e3ce6243dc83100U,
  0xbe22ae16bc33b27dU, 0x3cc89f64bd96d9fbU, 0xbca9dc54bd853205U, 0x3e2649d0bdb9353bU,
  0x3e0ab936be341304U, 0xbcfae421be35de54U, 0x3e1ee736be0c633aU, 0x3dbb509cbdbddf83U,
  0xbe2e1044bd3a6705U, 0xbde84f24bdd513a7U, 0xbc311e2e3e50a93dU, 0xbde443033d59bf1bU,
  0x3dcb5c52bd576daeU, 0x3d6d77123dbc5650U, 0x3e3af9b73cb4ba6dU, 0x3e24441abe3e3d23U,
  0x3de5a405bd9e69a2U, 0xbdaaebf1bb05759dU, 0x3dadb511be046fa6U, 0xbe06a3e4bdd16ec4U,
  0xbe24cf213e303589U, 0x3c4f77923de8a569U, 0x3daf5c34bd8c57aaU, 0xbe3f47653de29c67U,
  0x3c87fe583c9f3c47U, 0x3df4d1c3bd257b0bU, 0xbe4cea1d3d8889a1U, 0x3ca8f32c3c76a45bU,
  0x3dbe0b78bc84ebf0U, 0xbe0238fc3e5cd028U, 0xbd291e533c7869f1U, 0xbd7c3df33d986fa4U,
  0xbc89cbc13c8fba34U, 0x3e5c02833e269c16U, 0x3c79b413be2a087dU, 0xbd841978be06cfc1U,
  0xbd984111bd847d9aU, 0xbd1bbb583e2fef1bU, 0x3c2be3953d48353bU, 0xbdbcb411bc850e88U,
  0xbdc339d6bd9a5be2U, 0x3d90a9eabe2069d4U, 0xbdb8a1013dca72c5U, 0x3db16566bd5795e1U,
  0xbd524ae6be3428d8U, 0xbdaecde83e160826U, 0x3e2060da3e1b9b6aU, 0xbb9c50cebe163ba2U,
  0xbcdf0f053e0b7fb5U, 0xbdc0ad1b3e3fe7f9U, 0x3d73d276be269c33U, 0xbe12fda13dcf286cU,
  0x3e0cf5f33da34b4dU, 0x3da8aa923c0b127dU, 0xbe1349243d5e2435U, 0x3cdc772bbd0998c5U,
  0xbda8254f3e4a9a69U, 0xbbebb89cbe54bc19U, 0xbe4bc27b3d6e4517U, 0x3dd59bf5be2c8157U,
  0x3da178533e50dbd2U, 0xbd78e605bda2cb05U, 0x38b92df0be036a63U, 0xbdfdde86be3f2f42U,
  0x3e08b908bcff3e78U, 0xbdbd14e33e752022U, 0xbdaa03eb3d841128U, 0xbc893b60ba1da820U,
  0x3d6c6726bd34a6deU, 0x3e092229bd37683dU, 0x3e4034ccbd572823U, 0xbe37c45a3db0762dU,
  0xbe27c19b3cb97c96U, 0xbd00a2123ddf2f95U, 0x3d1a026ebbb546cfU, 0x3e33a3df3c164f1bU,
  0xbe368456bdef323dU, 0x3cc6f9433d13c321U, 0x3d38582fbdabf193U, 0x3d00e4ba3d93e745U,
  0xbc99aec9bca5cab5U, 0xbd79abc3be1b3552U, 0xbcea8b1b3e42a669U, 0xbe82f83abca6c1a7U,
  0x3d9f6e0abd45611bU, 0x3db99f57be465036U, 0x3e5418d0bdc788feU, 0x3e168f763d8dba45U,
  0xbe1c0d64bd9ea49dU, 0x3dd076fc3dee6a7aU, 0xbe003f0fbcf4e561U, 0xbdf162353e879015U,
  0xbdbd92e5bd9d54beU, 0x3cb64e7abda19721U, 0xba48f702bd0759ebU, 0xbd73edc73d3a6581U,
  0xbe4977a4bdf03c87U, 0xbdbd783a3dbffbedU, 0xbc120cf0be5114fbU, 0x3e7e41f53e3cb071U,
  0xbe160cbabe141c11U, 0x3d6e0f08be480e0aU, 0xbd918275be8d89b4U, 0x3d4e5046bdc4a3b2U,
  0x3c50d49d3e1fd3ebU, 0x3c653ca8be62bc62U, 0xbe2a7e6abcd81d06U, 0xbda31dcdbc97c2eaU,
  0x3e8c29193e78a10dU, 0x3d1c1e4dbe1f772aU, 0xbda3517dbe0ac523U, 0x3ced26903d537233U,
  0xbd089ebabdc31badU, 0xbe95c17ebd942cb3U, 0xbd3a572d3dbf862dU, 0xbd9726d1be42595bU,
  0xb95444143e17602cU, 0xbe12c1f53ddaf244U, 0x3d315e5bbe637e20U, 0x3d21f2f5bdc88bc2U,
  0xbd000b093c9b0a6eU, 0x3de9e727bd85441bU, 0xbe47b6763c6b31bfU, 0x3dd26e293de20baaU,
  0xbe970ab6bd091865U, 0x3d26c8d2be270e13U, 0xbcd0e23bbd5a5071U, 0x3e33e564bd12853dU,
  0xbdaae48a3e0aafe3U, 0xbdeca7e0bea9bf07U, 0x3ce9e658bddd9f4dU, 0xbdca3f2e3cbf8630U,
  0x3e3ca4233c25f871U, 0xbbe0cd9abcc55965U, 0xbdf6cd69bd9a6303U, 0x3cfa57913d6726eeU,
  0x3c993973bd8818a0U, 0xbd8256d93b903e1cU, 0xbdea46b4be379d90U, 0xbd7b32ee3cfdfb47U,
  0xbe0934ad3d8170b8U, 0x3de11194bdd46ce9U, 0xbcfc01b3bcdc3940U, 0xbd59bc223d84d3b1U,
  0xbdb63eedbe2f5e41U, 0x3cab05573e2935ebU, 0x3deb13b8bcfbc1f7U, 0x3e233a403e2a2e76U,
  0x3d12fba13d521fcbU, 0x3d263e47bd87d9d0U, 0x3d402003bb205d9aU, 0xbe0c246abd90c636U,
  0x3d25c5fc3c3594d7U, 0x3dbf7a69bdbdd911U, 0xbe2aee84be747f90U, 0xbdd6d9363e20ed5fU,
  0x3e35326ebe08c30fU, 0xbd08ede73cb3339eU, 0xbea71da73e12720fU, 0x3dc41200bdfa8861U,
  0xbca421d13da2298eU, 0xbdf9a3373cc4e653U, 0x3dee04c2bd2aae06U, 0xbc3103ebbdd68350U,
  0xbce89f8bbda5c94dU, 0xbde65a6c3d48eb90U, 0x3d7265943dc94bf3U, 0xbdfbe8c3bd09b142U,
  0x3d8428bbbd6cd212U, 0x3d33d2193dd143eaU, 0xbdeb37c1be1b2f33U, 0x3d4cf5283d3d5f2eU,
  0xbdc46be5be0ace21U, 0x3e1ab8723d23aa42U, 0x3d1d2258bd7659ffU, 0x3c18282f3e09a396U,
  0xbe0c7b863e3b7bacU, 0xbd82ef8b3d7de48cU, 0xbe407917bd17cc61U, 0xbd6685d5be2a2fcfU,
  0x3dbb4f553d9a4ba8U, 0x3e0af1bebddb032dU, 0xbd52956b3d6e657bU, 0xbc2cfaedbe69cc6cU,
  0xbe00df873ba82c5eU, 0x3cbbec5f3d8a0cfcU, 0x3e5ea45c3e37b122U, 0xbe6666b8be18f9f6U,
  0x3d8d7b91be1afcc4U, 0xbca6b38f3d0ec2b3U, 0x3dabc69ebd070129U, 0x3d8b023fbd3a297aU,
  0xbdd167da3e31061fU, 0x3ddd51e83d2bdc39U, 0xbc73f55dbb9fa676U, 0xbe41ecf63e0b4b67U,
  0x3e63d5e9be2e8bf1U, 0xbde4c5143c632d6bU, 0xbd9536693e735e3dU, 0xbd89030dbd99c193U,
  0x3d574485be87efbfU, 0xbe30a7a43e22026eU, 0x3e2a9d313d99eb66U, 0xbb80bac0bd89baebU,
  0xbe10a8c1bd8644bbU, 0x3cb30493bec0049aU, 0x3d8a2e5fbd715f6fU, 0x3db8ddcebdaa9bf5U,
  0xbcd82d243e6ec495U, 0xbd622ef33ddcf35cU, 0xbd5d8d5ebba94237U, 0xbde341a7bde64fefU,
  0x3e4719e73d1032ddU, 0xbda4697ebc64ebddU, 0x3e0f5f46beae89f1U, 0xbe2e4208bda5fcecU,
  0xbe1725943e119be6U, 0xbe19f0dd3e7ee0baU, 0xbe24d8ccbd70d29eU, 0xbc9b54cb3d9ca5b0U,
  0xbdbe9babbb9a81b4U, 0x3db9096bbd136286U, 0x3dcb3bc9bd853202U, 0xbe461119bb559843U,
  0xbdc34f1b3e1b4478U, 0x3cdf02443d4842bcU, 0xbe265a57bd1c755dU, 0xbdbe4e6f3e212fb1U,
  0x3d8322a6be236d6dU, 0x3dcbbd16bdcb1b19U, 0xbe2ec1bd3b4d6a46U, 0xbcb4a414be5a53c7U,
  0xbc7ce2283d044185U, 0xbda413553de4ec08U, 0x3d86eb05bd0c2365U, 0xbe8989bb3b99070dU,
  0xbd2e5c7b3c418fbbU, 0x3df105b33e243163U, 0x3d9295eebdf62617U, 0xbe17a4873e1c7a94U,
  0xbe0044cabe7488aeU, 0xbd269f17bcc7fa9fU, 0xbdc1b4093e2f1354U, 0x3d6fbb3f3e059815U,
  0x3d9d6f6dbde66d24U, 0x3daf6e94bdf1e16eU, 0xbdbee05abdadd58dU, 0x3db0cb613e53f629U,
  0x3c9b809dbc40c525U, 0x3cfb28c83d3513adU, 0x3dac1347be5be4a9U, 0x3e7217123db10a08U,
  0xbded479cbd640839U, 0xbdfab2babe064f9dU, 0xbe378fbfbcb74cf5U, 0xbda26a3dbd24c449U,
  0x3e013e833df5e89dU, 0x3e04bb63bdf4299aU, 0x3c121f76bda5b9a8U, 0x3c69c0b9bdec8a90U,
  0x3caf9fd5bd4f7bedU, 0x3dc1ab1f3d874f11U, 0xba1ccb113cf8b221U, 0xbdde6afebd90cf74U,
  0xbe50ba35bb012ae2U, 0x3d99c6793c999a83U, 0x3d1e885e3cb4c7e2U, 0xbdacdb6f3d0eda94U,
  0xbc55dc9cbbfe7f3fU, 0x3ddd2c49be0c07ddU, 0x3db48c083db06dd9U, 0x3d1169f93d7b6214U,
  0xbdfad838bcc8a360U, 0xbde868a4bd96df7dU, 0xbd07c779bcc4a7eaU, 0xbd727ce5bc32fed2U,
  0xbe1adaf1bd397c9bU, 0xbc0b94bb3d059339U, 0xbc95ca8ebd923c73U, 0xbdd5df7bbd164b2aU,
  0xbdca08cbbcb65e4eU, 0xbc8991f6bbd406baU, 0x3b827176be0093b7U, 0xbe15f160bdc29ba5U,
  0xbb445b3cbcf5660eU, 0xbe13bef83e1e8fa1U, 0x3d872e18be044683U, 0xbb7ed2dbbdef6f2aU,
  0xbd1f9d993cbdae00U, 0x3ab8a47f3e4e3829U, 0xbd289eb53ccd633cU, 0xbe8304543e1dfe9bU,
  0x3d7e7749bd74ee86U, 0xbcbc076ebe40552eU, 0xbc998f2abcad846eU, 0x3e1be4a63e2f7cfcU,
  0x3de0a4c7bea3c540U, 0xbca463073df333d4U, 0xbdecad13be17f541U, 0x3da7a7a7bcb101fdU,
  0x3d8740b8be3d0883U, 0x3dc315623dde7c88U, 0x3cad7715bdaf5029U, 0x3d700d953cd45593U,
  0xbe62702cbdbb65f2U, 0x3e25c717bbfaafbeU, 0x3cbca1f8bd7a496dU, 0x3d5e180bb84b145bU,
  0xbdca48043dce17deU, 0x3d89db99be6b187cU, 0x3c92b4e33e14c019U, 0x3c3478ebbcc23936U,
  0xbd5c36f2bd85aa31U, 0xbcf44766bd9c5499U, 0xbc657facbdc2b947U, 0xbd18663e3e14e099U,
  0xbc779066be0d1f52U, 0xbc6c4027bda316ebU, 0xbd28eb36bcba4054U, 0x3c1f78a1bc8f2bfeU,
  0x3dc270dcbd0bb887U, 0xbcfd15283cd73370U, 0x3c054e673ca05858U, 0xbd9a9175bd1ce461U,
  0x3d441fe2bcdfe9e9U, 0xbd3e950cbcdf15f5U, 0x3d1dfbf5bd887014U, 0x3d3c48a73d717377U,
  0xbd9d9c333d15b4d0U, 0x3d30f9b6bdb63d2eU, 0xbd9a6d40bd04c4e9U, 0xbca55e683d31598bU,
  0xbd7ddc24bc292801U, 0xbd6eac303dcffe29U, 0x3d13a6ecbc98f0abU, 0xbdee5d3ebd6e5acbU,
  0x3d75d923bc95bcddU, 0x3c92fe3abca874e8U, 0x3d009bf7bc275288U, 0xbd4726a7bdc39fefU,
  0x3c793ddfbbc085c2U, 0xbd6f45f8be18aa57U, 0x3ce54ec4bcff21cfU, 0x3c4e37c8bd235087U,
  0xbd6d4b953dfa7e6aU, 0xbd9d960c3d3af4a7U, 0x3dbdea87bc43359eU, 0x3c81b1b43d1b1064U,
  0xbd4eff543d8c1523U, 0x3e478302bd0b5815U, 0x3d41ca79bd9d3488U, 0xbd3f37573d287f05U,
  0xbd31b2b1bd961068U, 0xbd9ba83cbd2fee74U, 0xbdac4592bd7e059bU, 0x3d873536bda8aa04U,
  0xbdf079a63c4e9653U, 0x3d278abd3d82af08U, 0x3d2575173d67ca74U, 0x3da54e45be241ff3U,
  0xbd46c31abdeab1c4U, 0xbd0f2a803c81fa92U, 0x3deb4d853d05df58U, 0xbdba4c4fbe04a8c9U,
  0x3db69379bde351faU, 0xbcc90c16bce8da5cU, 0xbdd3f30ebc415e61U, 0xbd6ccb7ebd392ca8U,
  0xbd015d0dbe1c3259U, 0xbe12274ebe0d5e40U, 0x3d85bd67bde28904U, 0x3e068a62be0759bbU,
  0xbd9f2ac3bd163238U, 0xbdd0c86c3dd6bd84U, 0xbd19165abe270e82U, 0xbd8e4da9be1778f0U,
  0xbd2e11023dfe258eU, 0x3daabc2f3c123370U, 0xbdefe414be2d6063U, 0x3da4b7f93c8ce981U,
  0x3d9c615dbc3d5869U, 0x3df5e23f3d71e518U, 0x3d70cfb73ca098cdU, 0x3dccbd6c3def6d19U,
  0xbdada55abe1689f6U, 0xbc4abec63dae06baU, 0xbced3f113d2972d1U, 0xbdc57aa8bdc4fac9U,
  0xbd8808473df56415U, 0x3c9f4ec0be5861a0U, 0x3dd195ab3dad4a60U, 0xbd0baf9bbde2b7ccU,
  0xbbd6a7a73dcd583fU, 0x3d826fbdbd1b781fU, 0x3dce0eb5bda927fcU, 0x3c9d5977bc11098dU,
  0xbd76526a3b95b961U, 0x3d398046bc393027U, 0x3dc8b90fbdf5594cU, 0x3ce68683bdb79d1dU,
  0xbe0ec6e2bd206f9bU, 0xbd7012c73d36760bU, 0x3baca692bdc4d645U, 0xbe183bf6bd28774eU,
  0xbe17cf1f3c193dbcU, 0x3d305ef5be06b7a2U, 0x3d81459c3d54674bU, 0xbd0144a1be85b01fU,
  0xbca6ac7bbdc76292U, 0x3c2a32933ca0e2fcU, 0x3dc41e353dda1533U, 0xbcb0fc3ebdaab9cbU,
  0xbd742053bd968efeU, 0xbe08aeb73da4000fU, 0xbe21be12be06b56cU, 0xbdd5d825be0c3533U,
  0x3d9cc0dbbb9ba6faU, 0xbc96e244ba834466U, 0x3b367c79bdb75279U, 0x3e250ecebdb0c90cU,
  0x3b074168bca5f78dU, 0xbe1351753de2ff26U, 0xbd9bc8323db02abfU, 0xbd842745be20a9e2U,
  0xbd1e09833d230fdeU, 0xbe21971abdf686ddU, 0xbd95bb15be2285a2U, 0x3d2f61313dc9a68cU,
  0x3b43a1fd3cdd992dU, 0x3cd44c343e0af170U, 0x3d3131453dbb5751U, 0x3c4627d2bd595aeeU,
  0x3ddfafa63d090bc1U, 0xbddd5312bc6d5b34U, 0xbd8ffca7bcdfb225U, 0xbe2df87abd1ead9aU,
  0xbd92d2c2bc012f1fU, 0xbe11257bbe57037bU, 0xbc306fa0bdb55e82U, 0x3d01d4c2bc74785bU,
  0xbce829733de45fd4U, 0x3d9d68bebcc55b83U, 0xbc0a7307bdaced50U, 0x3de0a0f73e125800U,
  0x3daff2df3d7c3d79U, 0xbcb8fd2fbc41c541U, 0xbd98d91abdb70c8dU, 0xbe03e2633d779acdU,
  0xbba6cce93d62bc6eU, 0xbde7d549bdbb7cd3U, 0xbd86829dbc648e68U, 0xbdfbc2cfbc5c52cbU,
  0x3c84188bbc0db4a4U, 0xbdfe091e3c083333U, 0xbd6817d8bd0d8b8fU, 0x3dc03a92be07c732U,
  0x3d94fd4cbdafd813U, 0x3ca331613d42e255U, 0x3e234707bda70ecaU, 0x3d0d8e18be3ce0c1U,
  0xbdbfd32bbe54c795U, 0xbd9aa8e23ddad4f0U, 0xbbe1cfc0bd5f201cU, 0x3d316d59be00a367U,
  0xbcc1033c3d9442e1U, 0xbe1055943c5a2413U, 0xbd97d171bde6dd4fU, 0x3e34ada2bc86747aU,
  0xbd35164ebd99c9bbU, 0xbdd80563bd0577deU, 0x3d95928fbde195edU, 0xbd3944debdc3c903U,
  0xbd1b47293d97bd48U, 0x3dcbe526bd17d22eU, 0xbc49e10f3c0bfec9U, 0x3d8e0bcb3dd073afU,
  0xbe49cd463dfa32c3U, 0xbd64135dbdd7c7d5U, 0xbd56313cbcfc00f2U, 0x3d138fe9bcb53abfU,
  0xbd1d362f3ba0f4aeU, 0xbda55c2cbda02d9bU, 0x3d9757f03e2f8299U, 0xbcb41e76bd48092fU,
  0x3dc62a2bbd906d25U, 0xbda696023d8c6b0bU, 0x3d78dd75bd88e298U, 0x3d831cadbcb92db0U,
  0xbe2805713dbe5dcbU, 0xbc71e0c73d7e48caU, 0x3e35186fbe3691a3U, 0xbc952923bdd9a494U,
  0x3da29c2abd2f3edbU, 0x3acc4600bb857f4eU, 0x3d14c8dabe55e093U, 0x3cffd0f2bc6970f6U,
  0x3de0c608bbb3efc0U, 0xbbd0e67c3d1c9e12U, 0x3cb6658b3d4e8de6U, 0xbdcd4b64bd1eb37bU,
  0x3cd8688e3df576ceU, 0xbda095e13c878351U, 0x3d6188acbe055a12U, 0xbcecb4b0bdd1059fU,
  0xbc9c73c7bda90b43U, 0xbdca1621bbf56180U, 0xbd0c9feb3d8c5162U, 0xbd992027bd5b1921U,
  0x3c878f173cf5237aU, 0x3cc0b85f3d4e7582U, 0x3e07089b3a3cc521U, 0x3d6dee0a3d29e6a3U,
  0xbccf7acabcfc99eeU, 0x3cd4a2963bd05febU, 0xbe17af35bd178d34U, 0xbdb1530f3df9d21cU,
  0x3d521b183dadd7b5U, 0x3e109c4ebd965e50U, 0xbdb2421e3dc4b42fU, 0x3d1184e13dba95beU,
  0xbd48296b3d67ff8cU, 0xbd533ae0bcebc7a6U, 0xbc479a3bbd31a10eU, 0xbc890bd03d04892fU,
  0xbe0c72003d49cb6dU, 0xbb919d603d872737U, 0xbba459b7be35d788U, 0x3bc642febd73be22U,
  0x3c23e9423c67888dU, 0xbc809d0d3c8c3063U, 0x3dbe697a3d44a9b7U, 0xbd8635453d2c5817U,
  0xbda330f63b9f782fU, 0x3d5f6fa53ddbb13aU, 0xbdc5c599bdc40f11U, 0x3bdf49403d4c9b1fU,
  0xbe377025be155beeU, 0xbd87784e3ca3304eU, 0x3e43bc12be82d5a3U, 0xbe8b408ebd0de9d8U,
  0xbd4b02edbe1285daU, 0x3d6a01d33e3295ceU, 0x3d24fee1be19679bU, 0xbd6d3e023dac0010U,
  0x3cfa24dc3d464452U, 0xbdb467253dcfb770U, 0x3d53459d3e6db0a7U, 0xbe4bb8e53db10fc9U,
  0x3e1d5994bd2aea05U, 0xbd045c043db5c500U, 0x3d0888d6be13db44U, 0x3d9dba1ebd3ab7a9U,
  0x3d09f5fcbd15bbc8U, 0x3d320f61bc915f4eU, 0x3c38e99ebd54824cU, 0xbe29765dbdaf134eU,
  0xbd35a3c0bc24c35bU, 0x3d86e5873c9c717dU, 0xbc3cd92ebc47be9aU, 0x3cc58060bd34454bU,
  0xbcaf0434bd76f308U, 0xbc4b64cf3d378f05U, 0xbcde6882bc22a761U, 0xbda9f7753d7c9069U,
  0x3a3ae9873e4b77c2U, 0x3d1a40093c9251bcU, 0xbdb4d5d4bd26fe8dU, 0xbd45f80c3d9ece1eU,
  0xbe1395d6bc71e4d5U, 0x3d594429bd93d45bU, 0x3d8e379c3d95ff62U, 0xbd4c37d03d4cd9e7U,
  0xbe0b1047bd3937d4U, 0xbbae47263b0cf753U, 0xbdc6615cbccd3d64U, 0xbde42df4bd42558dU,
  0xbd608a933d56a1caU, 0x3df257b63ce8550bU, 0x3d3f6db23d3bce51U, 0x3d84cf1c3d12156aU,
  0xbcbd15463d7fbee0U, 0xbda43c3abd95836fU, 0x3dadcce53caaf6adU, 0x3d6571b83da75f57U,
  0x3cadce8ebe1c3686U, 0x3c4deb8e3d179d7fU, 0x3c73cec3be14c86bU, 0xbd8d9a5f3d4e053eU,
  0x3debe545be0b3b0bU, 0x3d2aa2663dfc4048U, 0x3d40d439be0ecb74U, 0x3d643a08bc939a23U,
  0x3da022023ceeefd5U, 0x3c917d5c3d2f0d31U, 0x3d6295943e5b483cU, 0xbe19169a3d2c1b13U,
  0x3d40f15f3e102f58U, 0xbdba00153e00515eU, 0xbcb93cf63d04771aU, 0x3bfc92c93c0cb478U,
  0x3d040df1be123f1eU, 0x3c2438ecbd67af9cU, 0xbcfcbb53be0c9ebcU, 0xbcc90ef43e2023f7U,
  0xbc93cf3bbd892aa3U, 0x3d9755f4be096667U, 0x3d83c9403cdac59eU, 0xbd4561fd3d841c2bU,
  0x3be9e6fe3c99155fU, 0xbd88f9b13c1d6814U, 0xbd91924ebc606e84U, 0x3d7c3229bd71ae4aU,
  0xbd688e523dfc3185U, 0x3e0250d03d8fa74aU, 0x3cb24aa83dafe108U, 0x3c1945a33e257162U,
  0x3da1a8b5bd1275a2U, 0x3d1be2aebd53acb2U, 0xbc8c605b3e0ac8aeU, 0x3ce4f037bde7ab3fU,
  0xbc2317623be2d49fU, 0xbe1c4db0bccfd9b4U, 0xbe12409dbe024fccU, 0x3dd3cd58bcb95c42U,
  0x3bb20b56bbd45b7aU, 0x3c5353e3bd34b710U, 0x3c2cfab53ceca18bU, 0xbc6fd3fabdf1bff3U,
  0xbd921422bdaa3938U, 0xbdeb6ca83c2fc5caU, 0x3db636143b94007eU, 0x3d863f3fbe8bec6aU,
  0x3d82d9f4bd9dee24U, 0xbdad19b33e33df46U, 0x3df0b2ab3c35d651U, 0x3d1718563ca9a316U,
  0xbc63a10a3d4aba83U, 0xbe3eca98bbe9120dU, 0xbd9502cebe14eb8aU, 0x3c63e7acbd50f49eU,
  0xbd26ef6b3da576d1U, 0x3dc69f1b3ddf729bU, 0x3dc3b16dbd35441cU, 0x3cd2cce73da4407eU,
  0xbd2808db3d30dfa2U, 0xbdd519303d625c35U, 0x3d868e153d03d952U, 0xbe438faabd2ca762U,
  0xbdf360f0bd77f7beU, 0xbd2e8fc4bcebefeeU, 0xbe215c263e251f44U, 0x3e043fa5bdc1b765U,
  0x3dcdabe4bd6401fcU, 0xbe6e329c3c019194U, 0xbd7fe82e3ced5e7cU, 0xba0cff2abd731e99U,
  0xbd0d371ebd9ada9aU, 0x3de47c01be50a269U, 0x3d8937a3bde88e89U, 0xbe686dd4bd083e63U,
  0x3c41016fbd8fb498U, 0xb95f1a86be32c2ebU, 0xbd1a564cbda1db78U, 0xbe0830e5be21cd0aU,
  0x3e12c19c3d764606U, 0x3c256d8ebdbefb2dU, 0x3da3f4f63da1e576U, 0xbc72bd28be55b2f8U,
  0x3dca9aa6bc0b68d2U, 0xbe3f20e53d8fa829U, 0x3ca1084abe4bf436U, 0x3dd30f1a3ba0e80cU,
  0xbd6e53623e01b4ddU, 0xbde0dd1ebd562a2bU, 0x3db4f2cbbd807502U, 0x3ba8d5593db46deeU,
  0xbd117186bdb9a3e9U, 0xbddedbd1bce3e93bU, 0xbd81c5aa3d900523U, 0xbc27c111be735974U,
  0xbe0f44a7be01d0c4U, 0xbe15423f3e02b44fU, 0xbd412e64bcd79bc5U, 0x3dec2d023d6c5a32U,
  0xbe5427ebbd03ad50U, 0xbe848524bcd818b7U, 0xbdf368cabd8feaaaU, 0x3d59b68dbdca8fd5U,
  0x3d5b8ec23dab61d9U, 0xbd2e891fbd339ab5U, 0xbe1037153ca33216U, 0xbde76a43bd0352beU,
  0xbe1101353d9c37f5U, 0xbdf7f5c63df67cdeU, 0xbd987d8fbd3cee7eU, 0xbdcdf0273c7e0a07U,
  0xbe6f71efbd7bca99U, 0xbd2132ddbddf15c6U, 0xbd7c27cd3de6cfb1U, 0x3d11e5e4bd002de2U,
  0xbd092905bd24f012U, 0xbd8a635b3d7b3929U, 0xbc02a05f3d003275U, 0xbdf8d620bd82a1a4U,
  0x3d17aee9bb4f8027U, 0x3b586a6cbe136095U, 0xbd3beebebcb4e93bU, 0xbe6c4285bd8e5b35U,
  0xb8ca65c4bd5bc6caU, 0xbe163ed2bdfec2d1U, 0x3d19c3023d9fcdc2U, 0xbd1380bebe4369eeU,
  0x3d187f3a3dc111d0U, 0xbdbec8383d6da955U, 0x3dd73bbd3c403ce9U, 0xbd580beebe05c5adU,
  0xbcef39bcbd9c33d5U, 0x3d52c4103d984cc1U, 0xbc01d311be386b91U, 0x3da200c4bcc79c15U,
  0x3dc04ef63d6bb11fU, 0xbdb8723d3dc7c7b2U, 0x3a51590c3beac75fU, 0x3c3d13ee3d6c786aU,
  0x3c5374a1bccaa1abU, 0xbdd2b04ebd4b1248U, 0x3cb9d5c03bc2b825U, 0xbdd5baacbde6480eU,
  0xbd4b33cbbd2a0cc5U, 0xbddd06b2bca87f4cU, 0xbd33ceaeb821b6a1U, 0x3caeb7b6bd9882b9U,
  0xbe08fee83d42e5c3U, 0xbded6c093d23ddedU, 0xbda41d77bd688d65U, 0xbd64b32abd0de697U,
  0xbdb775f23da6edfcU, 0x3b2c5d333cb4e164U, 0xbcfe9ebfbc1a4d94U, 0xbd819871bc06482cU,
  0x3d8201583ce6df1cU, 0xbd0bb4863e036b42U, 0x3db4ea02bd0de817U, 0xbdbefcf2bc2a168fU,
  0xbe3e98e73d1a72aeU, 0xbd6ab60abd87d557U, 0xbde81c3f3e14ed35U, 0x3e06a2fc3d73635aU,
  0xbcd403ca3d2ac272U, 0x3c55dabd3dbc95efU, 0xbdafbbbfbcb64413U, 0xbd47b372bb63f532U,
  0xbda2dbd2bd46fb75U, 0x3d11ac23be03b979U, 0xbe2607c83c9afe0aU, 0xbe35b167bda7f013U,
  0x3d0e89ddbca78f74U, 0x3cc9b7b7be1bd89dU, 0xbd64162bbcdd0332U, 0xbdc0d3d9be41507cU,
  0xbd9a5a12bd99908eU, 0xbc252f4a3d438018U, 0x3e1bf353bdde69deU, 0x3cfb5aad3d9195bcU,
  0x3e38ca873d26717eU, 0x3b505b4c3def1883U, 0x3cfe91e7bd3f2a81U, 0x3dcda8353c4a84e4U,
  0xbdad0e49bd2cf45cU, 0xbdbefc10bd1ef707U, 0xbdf38c7c3e237c67U, 0xbde3c8d43c0847d8U,
  0xbb3f56373e886115U, 0x3e4ee1e93d24b4eeU, 0xbc9f12f5bdcb9386U, 0x3d7786b03d59359bU,
  0xbb47f4e83d9007b2U, 0x3bdc3f48bd2adb9bU, 0xbd84ca923d40ad68U, 0x3e46ce553e1a8b31U,
  0xbcfb8acf3dbdd769U, 0xbd322916bdf04d27U, 0x3d7f30413e0e8a24U, 0x3bac7d4bbdf212f3U,
  0xbde21a8ebd1089f8U, 0x3db15996bd8f5794U, 0x3d57c933bde42eb0U, 0x3dcc0762bc9698ddU,
  0xbd23e0123dec370dU, 0x3d397e37be2baf30U, 0xbcaea612bbe9cba9U, 0x3de3a1693e240336U,
  0x3d5051043df8e116U, 0x3d98fa38bd506680U, 0x3c543c36bce8f994U, 0x3d3e8c483d96deebU,
  0x3d0be4cb3d239c50U, 0xbbce5f223ba65a30U, 0x3d601d503d9e0bd4U, 0xbe0147d5be10035dU,
  0x3da48121bd794170U, 0xbb72d5c6bce962a5U, 0x3d3eb8ab3d826dbdU, 0x3a688153bda092ebU,
  0xbe081041bd559e4fU, 0x3d993c59bd7dfd84U, 0xbda09afc3ce7b59eU, 0xbd21ae103e52c127U,
  0xbe28d403bd1f5832U, 0xbda4c8e73d9f75f4U, 0x3e21418fbe17d3a9U, 0xbd0b55e03ce64763U,
  0x3dd7476abde48225U, 0xbcdf2a993e48e55fU, 0xbbef3a74bdfba891U, 0x3d8314d63e0283b9U,
  0xbd8e94c6bd48fcccU, 0xbdd0c82dbb8aa443U, 0x3a9e4e913e5e0f72U, 0xbdabdd1e3ce6c14bU,
  0x3d21719f3dc65f52U, 0x3d8e6c9f3decb619U, 0x3d24ec48bb7679cbU, 0x3cb73ff1bdd7c474U,
  0x3d83bbb8bcc8f03bU, 0xbc6d2348bddae078U, 0xbdc4c3dd3cb3bc19U, 0x3d90717d3e639b1bU,
  0x3d1ac9713e18d62fU, 0x3c9d7a4ebcf23832U, 0xbd45f7293af35c48U, 0x3d9f7468be46b669U,
  0xbe1bec40bd5d524bU, 0x3d18bc78bda8bc4aU, 0xbd4caf8a3a2b587cU, 0x3be62acb3d79a4e6U,
  0xbd3cdf5b3dbf896bU, 0x3e4147733cca138fU, 0x3cd4d4e73d404c32U, 0x3cd2761a3d22b4deU,
  0xbdcc39de3d45b393U, 0x3abd1392bd83ec9aU, 0x3d34a9063d62bb9aU, 0x3df147ac3dc7a163U,
  0x3d0251813c4b0b98U, 0xbd628cfe3d4a21e9U, 0x3d718a523cc7d5f0U, 0xbdd562d0bdc276bfU,
  0x3d89cd60bd14a85dU, 0x3b398c4fbd0ee83eU, 0x3daff3033d840109U, 0x3bbeb902bc18ce5dU,
  0xbceda1433de84e27U, 0xbcc60086bd5cd690U, 0xbd2218a5bdc5dc67U, 0xbd8303c73d93efedU,
  0xbda890cbbd060d1bU, 0x3d7e87a8bd29e388U, 0x3ded870dbda6ce35U, 0x3d99602dbd8aa3e5U,
  0x3d5e19a5bcca337bU, 0xbd75f82a3e086280U, 0x3cb68441bcde7b8eU, 0xbc10a3bd3e04de50U,
  0xbdea541cbd44cc78U, 0xbd3daaf53d105d04U, 0xbce1e5393d9e8180U, 0xbdd65a92bd281db5U,
  0xbd92079a3d47a0a9U, 0x3db4ab9a3da63a63U, 0xbc1b22683dbfa034U, 0x3c6d16d8be4cdce3U,
  0xbe1667b3ba88f826U, 0x3de862aebd238d53U, 0x3dba89afbddf7437U, 0x3dfaea62bd456963U,
  0xbe1810923d6eb974U, 0xbdab229f3dc1584fU, 0x3c89e474bcbef406U, 0xbcf09cb5bdfb0111U,
  0xbda98a6ebdb1ba08U, 0xbc58eb503bf47f4fU, 0x3ca1d2f43e17fef4U, 0xbd424e90bc0acebaU,
  0x3d341655bbbfcefbU, 0xbb12ebed393c07a9U, 0x3cdd5123bcb1361aU, 0x3db933073db479deU,
  0xbd7b25943bbacd77U, 0x3d217515bdd7d40cU, 0xbb454c36bd6acf9cU, 0x3d83372b3d865e75U,
  0x3bb26b5b3dd01fe6U, 0xbd42ce533de32196U, 0x3df1100abd3063b4U, 0x3d050669bd8174e9U,
  0x3d176f95bd42785fU, 0xbd1a0070bcb09083U, 0xbdc9c7cf3de2cd7bU, 0x3ccf06d4bcddd39fU,
  0x3d05e41f3dde7b1eU, 0xbd9a4f0abce60dbeU, 0xbdf46391bdded979U, 0xbd4a46f93d2c60b5U,
  0xbe2233babb9702e0U, 0x3d27041fbe3bc11dU, 0xbe8fa2f1bd5300c5U, 0xbe29ae71bd8abe16U,
  0xbd82aadcbd901ff3U, 0xbe23d7c53de84777U, 0xbe344755bd01d543U, 0x3c0cbc4d3d52e27bU,
  0xbd8e1025bc605b2dU, 0x3d38b58bbd7b66f8U, 0xbdd96788bd310af3U, 0xbe1508f7bdd3e964U,
  0xbd2e407ebdd10836U, 0xbd966a57be89e0d3U, 0x3ca7c380bdeffa7eU, 0xbdd9011bbe28d764U,
  0x3d5ab0193dd045efU, 0x3c942ef8bda89af5U, 0xbc16ebcc3dad14d8U, 0x3b64ac2ebd339b14U,
  0x3c4fd4383dbe52eaU, 0x3da613b33ccc77ccU, 0x3dcc32383df25c98U, 0xbdf693693d9a5200U,
  0xbc1c94503dcecd0bU, 0x3dcb9dc33deec681U, 0x3b2e22233d614f6aU, 0xbb8922d2bca53561U,
  0x3de0f85f3cc4399eU, 0xbddbfd7abc6ced2fU, 0x3dd738c3bbc3e9ddU, 0x3d87ba8ebda5d517U,
  0xbcbba9753d2aca06U, 0x3cc7fc0f3c3ef8ccU, 0xbd0d7c15bd980166U, 0x3d9563ed3d0f2247U,
  0xbd741a473df3ba2dU, 0x3d9ca01b3b61a099U, 0x3e020a1d3dc27ce6U, 0xbd891fd93db8d84fU,
  0xbdb5f8173d61536eU, 0x3d01dc223d818bbeU, 0x3d6a8df2bdbd670bU, 0xbd75814a3d27d173U,
  0x3de296293d8db751U, 0xbe2a14e73c1f2e87U, 0xbd3cd5aabdb97fd2U, 0x3e2b0c1abddf3591U,
  0xbe2435abbe4cc655U, 0xbd9ed8d7be5ec483U, 0xbe84d6033db15ac7U, 0xbdd1472dbd8fe028U,
  0x3be9dec4bd8b3901U, 0xbd1e66133ca2c7c5U, 0xbe01c7a6bdd9bfd1U, 0x3d7cc4f2bdb06c72U,
  0xbd0790b1be1aaaccU, 0xbe0c064fbe342808U, 0xbe2a992b3d5c34c2U, 0xbe17f8e3bdd3db61U,
  0xbdda42793cbaad1eU, 0xbe159b40be7e2e94U, 0xbdb27a2e3c3715a9U, 0xbd56d019be19fa9bU,
  0xbd00f30e3d0dcd5bU, 0xbd5ae1c1be032a2fU, 0xbe0df7e9bc8b6692U, 0x3d5842adbdd99ec7U,
  0xbd1a6e98bc369346U, 0xbcb158353de40c54U, 0x3d402a8cbd751d5eU, 0xbca98b883c767bfaU,
  0x3e1936bd3e09e199U, 0xbdbe4177bc2151f9U, 0xbd2c15c3bdb1a653U, 0x3d25b985ba431b43U,
  0x3d760c13bd0c78a3U, 0xbd829612bd1a02d6U, 0x3bda24e33d89e2d0U, 0xbd6201e3bd121c6bU,
  0x3d99a0233dda46e7U, 0xbdb1cd643d453ad0U, 0xbe17e384bddaef37U, 0xbb8cac9e3b313acfU,
  0x3d375a463de11602U, 0x3e141f6d3d6461f2U, 0x3deda2b03e2b2acfU, 0x3d9d81983c99e550U,
  0xbd5fad88bd9935fdU, 0x3e039f343e15f46cU, 0x3d866b473d9afb31U, 0x3b4b6e383dbe3655U,
  0xbd67eeb9bd832ed8U, 0xbc1a79bdbe3a003dU, 0x3ca2d1253c30f77cU, 0xbd124bbebe402265U,
  0xbe81d8b6be0773afU, 0x3cca3c45bdae4854U, 0xbe62b661bc861564U, 0xbdf31e32be51107fU,
  0xbe3dabe2bb2fd79fU, 0xbdbd34693de831bdU, 0x3d82ac36bcd56074U, 0xbc94b58f3d53f596U,
  0xbd951d123c793d7bU, 0xbd253df63cb6b8e1U, 0xbe01d5bfbd38354bU, 0xbc5a700d3c890c52U,
  0x3c481015bd195efbU, 0xbe0970dcbdb63549U, 0x3c9c2b4838848c1fU, 0xbdef6248bdf9e98cU,
  0xbddb10f53d8f98aeU, 0xbd8cf245be048009U, 0xbe31ab15bcadf52dU, 0x3d80309abd16b99eU,
  0x3d2d27b7bd69848eU, 0x3cb323eb3b4632e4U, 0xba8e9fc3bd866376U, 0xbb9a8a7c3e1bd6a2U,
  0x3d6889923d49a7c7U, 0xbd6714e6bd0fa380U, 0xbe166e0c3d2806ceU, 0xbdad110bbd34aee5U,
  0xbd5e2aa5bd960c65U, 0xbbf132d1be8bd91bU, 0xbd811e9fbd33e159U, 0xbccc1e5cbdebb12fU,
  0x3ca84a2f3dc00358U, 0x3e041cb5bd07e02dU, 0xbd707149bd54fdacU, 0x3cabb6673da14435U,
  0xbd42ec663e0b8a71U, 0xbcb54d093dec5a02U, 0x3da835d2bc957ff5U, 0x3d95d45c3e2bbd1eU,
  0xbcbf4f243c0eeb65U, 0x3c5b4ae0bcaeb60cU, 0xbd9131cbbcdcd510U, 0x3d490614bdc5badcU,
  0xbcfb4c7d3dac493eU, 0xbd9126e13d052debU, 0xbd0c67e43cebfbecU, 0x3dcdd42ebe23e4d6U,
  0x3df8e6bbbc048dffU, 0xbc9ccc84bda5c536U, 0x3db8e48bbd057a38U, 0xbd7ae6bfbd1bb698U,
  0x3dde3924bce5fb23U, 0xbcea7591bd8193c1U, 0xbc74bed43d1eace5U, 0x3d3a6f8dbd98ca88U,
  0x3e0002ae3ca0c308U, 0xbbf813083d2f0855U, 0x3d8624cfbdacb208U, 0x3dbabc1b3e086014U,
  0x3d4b6414bd8edc4aU, 0x3d7a81c83daaa1d7U, 0xbd9dc91abd05d1c4U, 0x3ca7bd31be01e467U,
  0xbdc36fe4bdaf9c20U, 0xbdcc862dbc04004aU, 0xbc9041d13dd90794U, 0xbbeecabdbd956ca6U,
  0xbc335854bd2dca5dU, 0xbdf161723daed436U, 0xbd4ce1c43d989297U, 0xbddbd7053d7e2624U,
  0x3cc0a80dbc3dc35dU, 0xbad15d453d2c74faU, 0xbd6e60f0bd89b457U, 0x3e399dd4bc6bebc9U,
  0xbd4f7bb03d0a58fcU, 0xbdb6a6663d3fc99eU, 0xbbcaf61e3ddaf95fU, 0xbe086fd7bdc23939U,
  0xbe212acabe5ac37fU, 0xbdbc5b95bca51369U, 0xbce4a7c93dcd4366U, 0xbd99ccb5be2a7481U,
  0xbbdd9722be50af4eU, 0xbc8a58c4bd88b131U, 0xbe0cc905bce78c7cU, 0xbddc5473bdd39661U,
  0x3c21da7a3cf6e3d5U, 0xbd49ffff3db42a12U, 0x3a85d3f9bcc14f7fU, 0x3e17bdfcbbea18faU,
  0x3ddc3d9cbda70121U, 0xbd59679fbcf82f0eU, 0xbd71b1a3bd5ef823U, 0x3cc1fa7d3b1f760bU,
  0x3d7ba2a13d1b01c0U, 0xbd883a7a3c6defe4U, 0x3d82e1b0bce46d31U, 0xbce5ec4cbda1ad07U,
  0x3d1e9562bba696b5U, 0x3d87a91fbdb60c46U, 0x3d036b443daae9e6U, 0xbdedcf3d3c40d04aU,
  0x3dbb80fe3e04014eU, 0xbdf61daabdc60271U, 0xbda0c9b8bdc90627U, 0x3db1ccdc3d11fd11U,
  0x3da3665ebdb119cdU, 0xbbab082b3d9ed14bU, 0xbc6163f93df97a2dU, 0xbd15b2abbde776a5U,
  0xbd979732be21b8e1U, 0xbda9ec103d9873f6U, 0x3d5bce52bd3f249fU, 0xbe1742fabc377eadU,
  0x3ce1b0febe09cfc9U, 0xbd1ae3fc3d9fcd60U, 0xbdc8759f3df9d92cU, 0xbd8db00bbc4b5886U,
  0x3c807e19be04be77U, 0xbda7e9d4bd63ff74U, 0xbd2bdd11be34aebeU, 0x3e172821bd3b5c46U,
  0xbd29c61abc29f30fU, 0x3d8b24303defacf7U, 0x3d9022f2bc6c7424U, 0xbe029d0fbe05f4f0U,
  0xbdfc174bbe8370dcU, 0x3ca13392bda12023U, 0xbd5cd9cc3cf8ac03U, 0xbe788f85bdb96f6eU,
  0xbd8912f8bc6239faU, 0xbe057aecbba1809fU, 0xbd9699353d7866dcU, 0xbe071263bdeb55cdU,
  0x3c1db9edbd24e113U, 0xbe3722cabde0701cU, 0xbe4c654fbe01b762U, 0x3d5b41d43db20918U,
  0x3dce046dbe1c36d3U, 0xbd722ff63c999829U, 0x3c8a26b2bdb90d54U, 0x3cc551d0bd4bf2cbU,
  0x3d0ae46f3d4cfcd2U, 0x3d9c0e1eb91394b4U, 0xbb30403dbd92f83eU, 0xbd0f38d23d58f71bU,
  0x3d8aa07e3de76287U, 0x3d58207b3d3e63d5U, 0xbd56d23a3dbf51e9U, 0x3d958deb3cfb40d9U,
  0x3dbf20b13e04f386U, 0xbdad3bc5bd5e081aU, 0x3dad658ebdaed677U, 0x3d5984d3bcdc7efaU,
  0x3d265a6f3d182cb2U, 0xbd63774abd1a2247U, 0x3c827390bd4615e6U, 0xbd3c3ac2be11475aU,
  0xbd3a041cbd9237d0U, 0xbd637adf3d2a5e8bU, 0x3d986009bd6819a6U, 0xbdce3fbfbdee24a7U,
  0xbd934307be0b6960U, 0xbd5f7059bd9ebfbcU, 0xbca3d11a3cb5d0e8U, 0x3c325d20be284c38U,
  0x3d3a7532bd8ef8bfU, 0xbe1058953cc3deb1U, 0xbd61d8d0be22db5eU, 0x3e218981bd69b200U,
  0xbcf45b85bdc5f438U, 0x3c095dca3d4e0570U, 0x3d0dbfcb3c19d06aU, 0x3ce45b29bddc0d12U,
  0xbd2b7efcbe4fa7c4U, 0x3cfc6017bdf72a1cU, 0xbdc87fd83a5ea602U, 0xbdb9ed90be37979bU,
  0xbbc7390ebcf1891aU, 0xbc94f9ea3b0a0d37U, 0x3cd3fa3d3c0052f8U, 0xbda355f6bc8c4771U,
  0xbd44fa0abd25f9edU, 0xbdbf8d25bdafc7bcU, 0xbd3a028bbe3f2e4aU, 0x3d091a5b3d1a68b4U,
  0xbb9f7cd6be2aa507U, 0xbdb11934be4ea8c3U, 0xbba2eecdbd9ae7e0U, 0xbda4c1febd947676U,
  0xbca8750fbcc72a6bU, 0x3d44fc563d992f1cU, 0x3d1176b0bd11d753U, 0x3cef1339bd1c1c7aU,
  0x3ce2fac73d0928d4U, 0xbc79d46fbd2de440U, 0x3c88d646bca72928U, 0x3d19ab033dba4f16U,
  0xbbf038a03d7d25ceU, 0x3cf5b896bdd03696U, 0xbdb0d0f83df5ed80U, 0x3d7468cebc88a256U,
  0x3d9714f6bbc35be5U, 0xbdb2c0ec3d7be46dU, 0x3da7bd1fb9d1d40eU, 0x3d5e66bdbe2d0304U,
  0x3d1b1c0f3d25614cU, 0x3d8ddacc3c7d841eU, 0xbdfa0132be3bc5a0U, 0xbc96082d3de128b4U,
  0xbd3474183ca79771U, 0x3dfca147bd465e73U, 0xbcbc1d85bda5570bU, 0x3da971c23c69e3d5U,
  0x3d39e7c23cbfefdaU, 0xbde212fc3dbbf152U, 0xbe073bdbbdb9b2beU, 0xbda13c793d9a939bU,
  0xbdbc8aa43c3ed217U, 0xbe0b016cbd2eafffU, 0xbc941240bda961a3U, 0xbcb7b64cbe50de09U,
  0x3e0c7164be27a7cbU, 0xbb9907f53de60abbU, 0xba78c3963d48e62bU, 0x3d0fe214bdc5b454U,
  0x3d99d9e9be1037f7U, 0xbe7780f1bc75e064U, 0xbe44f76fbddd4a78U, 0xbdde829cbe1d8b96U,
  0x3d58bc99bbb373e6U, 0xbdac31debd94fadbU, 0xbd18f54b3cd81c34U, 0x3ae9e455bca5cb6dU,
  0xbd4494afbe826156U, 0x3beec1a63e303a1eU, 0x3dcb61f93d62e630U, 0xbdd50b25bd90e009U,
  0xbdfd24463c0b4d5cU, 0x3dcb6827bdbeac0eU, 0xbd97ca69be25feaeU, 0x3c362a3b3d6b676fU,
  0x3dbc7b50bdbd8349U, 0x3d33ae18bd7c8bf1U, 0x3db91c623dbf9a4eU, 0xbdb1d7373d4653b8U,
  0xbd7eefd6bdeb04aaU, 0x3ad453e8bd3b358eU, 0xbc07af59bd287bbdU, 0x3d49628fbdc8b7deU,
  0x3d9239653c8d41c8U, 0xbe42e24cbd8537aeU, 0x3d6c802f3c363573U, 0x3d9f6d52bdb9d5f2U,
  0xbdacee80bd9556e3U, 0x3db1d23abdf7e95dU, 0x3c5c1198be8b949cU, 0xbd1130e23e1eed76U,
  0xbcfa792f3dba70a6U, 0x3e1fee14bddfef96U, 0xbc08238a3baadf26U, 0x3d3dadf3bdcfe139U,
  0xbe013d1b3bd8f2e0U, 0x3cab84b13d17149dU, 0xbe16cadbbd9e9772U, 0xbe210a883cebf657U,
  0xbd180a65bd904cc9U, 0xbde17114be4f2c6bU, 0x3d8ee3973d3f9460U, 0xbb852eeebe95a9fbU,
  0x3e25f48cbd65ed1dU, 0x3c5b58a03dcfb364U, 0x3e23578e3e14a96cU, 0x3c53a5f0be45a7cbU,
  0xbd1e7717bb72d4efU, 0xbe9330adbbba2fb0U, 0xbe2af01cbe1e26e5U, 0xbbb6c3dcbca1f626U,
  0x3db22b8c3e0d3a25U, 0xbdb7df78be6dd6cfU, 0xbd433fbcbd38c5c9U, 0x3d5658a3be322da1U,
  0x3cbd2925bda32f80U, 0xbe0e10723e0b9abbU, 0x3cfcab543dafea50U, 0xbd031195be065fe7U,
  0x3d13e757bda6ed22U, 0x3d4ad6123bfe5aa4U, 0xbd827ab0bce99937U, 0xbd035ef53d05f5b1U,
  0x3e0d0f75bd7e43b1U, 0x3d2fd2b73bffe22fU, 0x3de311453c5a4becU, 0x3d45638b3d42d7d4U,
  0x3da2971e3d10ec92U, 0xbd5d56083d6e63a0U, 0xbd852f883cfffb39U, 0xbdb420fd3d1dd624U,
  0xbd5fcc44bde8a781U, 0xbdfa751abd7d2acaU, 0x3e1a1daa3d665e32U, 0x3ca88e94be0dbc3eU,
  0x3c35383d3df8823eU, 0xbda1b0033d260d9bU, 0x3c79d5b1be31bd2fU, 0x3cecae453d955c91U,
  0x3e0fd907bddfc0cfU, 0x3e0c409f3d71d6a6U, 0x3c770d81bd96e6b2U, 0x3d6acf1abd9cfaefU,
  0xbdb4dbcbbb9af1c2U, 0x3dc2ed463c561a66U, 0x3e04f7393b8c83f1U, 0xbe3b66c93ded3139U,
  0x3d27bf77bd31fbc9U, 0xbe1fa6a8bd4d402bU, 0x3ceb89e7bdda05f8U, 0xbd4fa417be915e04U,
  0xbb32dcb93d38f7b8U, 0x3ddda3203e38750bU, 0x3d65dc5b3d39d246U, 0xbcd6c386be0f84adU,
  0x3c1d28f6bb253efdU, 0xbe076ca1bd2823fcU, 0xbdd5b0e3bd640e99U, 0xbe2908a0bde06cf3U,
  0xbd86522f3d65480cU, 0xbdc02881bd646690U, 0x3e2c389abdfdb133U, 0x3df858c8bca21a4eU,
  0x3d8c4335bdc62800U, 0xbd246ec03defa481U, 0xbda3ddb0bcf4ca15U, 0x3dbbc79fbe3ed7a2U,
  0x3dcdd90bbcc50958U, 0x3d520dd43e05b716U, 0x3e0ef542bdad66b8U, 0xbdc953fcbd5af507U,
  0x3e40ffbebe0e7102U, 0x3d5e9b09bd28e89eU, 0xbc78b983bd2b7f00U, 0x3ca58287bd7b9b64U,
  0x3e182ab83cdad4deU, 0x3d90a1b9bd87d397U, 0xbcf56939bc5b1ba1U, 0x3cff792abcfae61bU,
  0xbdbb17073d9cc709U, 0x3d435f58bd575768U, 0xbc3c8a0c3deaac54U, 0xbe2583de3cba3813U,
  0x3dab715abd1d050fU, 0x3d8a237cbcedae10U, 0xbb90f1babb8ab64bU, 0x3dc514d83de2d35bU,
  0x3c02cf243e0cca0dU, 0xbd937edcbde780c9U, 0xbd444eda3d41c1fdU, 0xbddc8b86be4abcaaU,
  0x3da1ccf73d1b9480U, 0x3de837623d9f0dfdU, 0x3d8c3cacbd86a370U, 0x3d8a70cabd5d18cfU,
  0xbe4730163d84f91eU, 0x3db19be93d27346fU, 0xbdaa2a993bafd85aU, 0xbdb68a72bd9b7478U,
  0xbd2983443e2b13f8U, 0xbd0d71853e05b8d7U, 0xbd1ade0cbd39a8f9U, 0x3ddc51853d13b4ffU,
  0x3da408093db9dbbeU, 0xbdd206f9bdca320eU, 0x3e03529f3c81d7bbU, 0x3c36869ebdc57d5cU,
  0x3c021157be32d1ddU, 0x3dd6872c3d8fa4fcU, 0x3dcc3c623dc928c8U, 0x3b61256bbbfd820fU,
  0x3bbf53453da1e92cU, 0x3d876919bdb077e1U, 0xbb34b3eebe02882aU, 0xbc628ee83dba306fU,
  0xb8faa70fbb048994U, 0xbd4f04113e2ec236U, 0xbd227358bc8359d5U, 0x3d9584573caf01e4U,
  0x3d068ffebda4a3a0U, 0xbb5189113dcc49e4U, 0x3dc8bd0cbc817b96U, 0x3da10f15bba1e9c6U,
  0x3ce593d73d57b856U, 0xbdd25bbd3db3c7e0U, 0x3d9eb716bc34b24fU, 0xbde954433de130deU,
  0x3d91dc453dbeea14U, 0xbd0708513d3417dcU, 0x3c9bd24e3bdc92c9U, 0xbe39a9713e0d1b33U,
  0x3d8627903da5e499U, 0x3c294fa33dd9942bU, 0xbddf48eb3d238e5bU, 0xbbc8a6a43d43972dU,
  0x3d298c773e24fcb4U, 0xbd841553be4a6266U, 0xba406b903dfd5b5bU, 0x3d1dbecfbe0854c3U,
  0xbd8bf36c3d18f662U, 0x3ccc7c13bd504d2cU, 0x3cd4168fbdb69d4dU, 0xbcf4033ebdeaea40U,
  0xbc452ea1bc664dfcU, 0x3dfdff6b3cc96ec0U, 0xbd44ba493e09c6d7U, 0xbe67c4923ce1f5a6U,
  0xbe2577273e555a0dU, 0xbd548b55bcf4eddbU, 0x3d5173cfbd85172dU, 0xbbc6afdc3b109a54U,
  0xbd7987113d61b9d0U, 0xbd82ad75bdb03177U, 0x3d85490d3dc28a1cU, 0xbd96c67fbdb797ceU,
  0xbd961fffbd313bfcU, 0x3e099a31bd24f8e1U, 0x3dcc01313e27309cU, 0xbd500d22bd8acf6fU,
  0x3d34fa253d005febU, 0xbc91e018be32e4f1U, 0x3d9ad7a33d1025d9U, 0x3d51c6423d896197U,
  0xbd99ddf33dbd48c2U, 0xbcdd15143da860d2U, 0x3dce9ffdbdf40ab0U, 0xbdeed0babd45aed9U,
  0x3d3244fabd82117bU, 0xbd8407bfba2639c3U, 0x3d28b3813d04046fU, 0x3de83631bdb60cdeU,
  0x3d72f69e3e071292U, 0x3b562d38bdad5691U, 0xbde1c2af3de128b6U, 0xbd09b0d93cd209deU,
  0xbd3b023d3dc701ecU, 0x3c0b42d1bd5c13bdU, 0x3ddd0d913de8c781U, 0xbd3179a63e151826U,
  0x3e22fa263d9b276eU, 0xbadd9fdc3d484b85U, 0xbde74e77bb89934bU, 0xbd97dd9d3e0a4ce9U,
  0xbdca127c3df68e9aU, 0x3cb6278fbdb3ae79U, 0xbce93c053d9fa59cU, 0x3cf118dcbd4572ccU,
  0x3dd4249d3dd1d3e4U, 0x3d181e683c732e7bU, 0xbd752451bd9166b9U, 0xbd3ac34ebe1f437fU,
  0x3dacba143cbbc79fU, 0x3dbe82043d6d1ba2U, 0x3cb3d93bbca08ff9U, 0xbe1e0767bdbea2d4U,
  0x3c6578ed3e171537U, 0xb933c796bb85078cU, 0x3d58c16c3d88e1bfU, 0x3e0ee43abd10b56fU,
  0xbc153463bd7a6102U, 0x3e0313693dc6d633U, 0x3e1b2f293d12aa47U, 0x3a1e6e77bd464384U,
  0x3dfa520f3c2efdaaU, 0xbbda010b3e4948b4U, 0x3d847d933ccfc26eU, 0xbe043c453d8c8abbU,
  0xbcb37b54bd62f209U, 0xbcba3f09bd3b96b1U, 0x3da65147bdf0600aU, 0xbcd2a598bd9e90c0U,
  0x3c0d7ecfbdb455a2U, 0x3dccaf063ce4f938U, 0xbe1485f0bd2407b7U, 0xbdc9e02f3dcdcb23U,
  0x3d9a5c79be1e8b63U, 0x3d822aa7bd192227U, 0xba7b23dbbca9647eU, 0x3d3bbd67bc767cdaU,
  0x3a82bc4dbb2adb9aU, 0x3c822d9f3d1df261U, 0xbdd066c7bc50d5ceU, 0xbe0b8d8d3cbef622U,
  0x3df33600bcaee2bfU, 0xbbc7574cbda550bcU, 0xbbe915543d2bf86fU, 0x3d94076abd951a58U,
  0xbbc3035f3da3f065U, 0xbce053adbc610378U, 0xbd2a215cbe218d0eU, 0x3d983d9b3e05a377U,
  0x3dd270df3e0762dcU, 0x3df8da763d4f6c1bU, 0x3e293ea1bce310deU, 0x3c3551a8bbfb4629U,
  0xbcc8e3c33daee4d8U, 0xbdc1349fbc5def53U, 0xbc99c77ebe0bdc83U, 0xbe2eef2b3d877f13U,
  0x3d7cbd38bca45a7cU, 0x3d777238bc4e6f17U, 0x3d400ffe3be0cce8U, 0xbd35bac6be49ad68U,
  0x3e22a8b43c964257U, 0xbd202f263d5aebe8U, 0x3dcf71d23ddb3cf5U, 0x3c36778fbe14cd45U,
  0x3d221decbe06151bU, 0xbe2569363d93e202U, 0xbc5981e8bdd9dd1bU, 0xbe06dc99be3bc7f6U,
  0xbd71ce283e262707U, 0xbd085d23bd9f9f4bU, 0xbcbf9ed13d142651U, 0x3e2f4720bc3303a1U,
  0xbdc49cf3be448d33U, 0xbdf7218c3da28ccfU, 0x3be6a2993ccfb21aU, 0x3d0760f8be19ec2eU,
  0xbd1e2fbc3ca37850U, 0x3ce80b8b3d800c74U, 0xbcf54ee4bd8c9d1eU, 0xbd71a9d4bcfbfad0U,
  0x3d9972113cfe7e2bU, 0x3dc3111a3b958404U, 0x3c68951dbd6df1b1U, 0xbaeb58c93d4edb5fU,
  0x3dda64b63dbd0d7bU, 0x3dc94c95bd41007aU, 0xbcf6f1d4bd3c4aabU, 0x3c865f94bd9be4e1U,
  0xbd9d3cd0bd637522U, 0xbd5d1d6dbd9c4b73U, 0x3dbdcee93da5b80eU, 0x3d0b409abe01171aU,
  0x3d900e843dccc32aU, 0xbdb767d63d9093e6U, 0xbd632987be28c615U, 0x3cc6996dbc314243U,
  0x3d6b5b0cbd2a92c0U, 0x3de84f8f3c4b539fU, 0x3e17917ebcbc3435U, 0x3ce56e513d2af220U,
  0xbdd039b93c8ecc43U, 0x3da6e7cd3da7e6eeU, 0x3b753009be2a8881U, 0xbe0471a9bc8cb462U,
  0xbd763f64bdabb777U, 0xbc2dc7d5bd99fb49U, 0xbd8882e53d215f10U, 0x3e1eee63bec4e58dU,
  0x3e48c19cbdece84fU, 0x3d8e1dd93e1590a3U, 0x3d5753ad3dcb3c73U, 0x3cb02b96be0bd203U,
  0xbdd66dffbe04a2d8U, 0xbdbffae2bd6217f4U, 0xbdc158a4be20530aU, 0xbc790a24bcd9b273U,
  0xbc36f77d3dc78086U, 0x3db5fb33bbb16e8bU, 0xbbee289fbe3637e2U, 0x3e442f3f3e1f967cU,
  0xbd6c4a9fbe00e0c6U, 0xbdfaef0c3e4a3e04U, 0x3d93fe233d53d4f7U, 0xbd2f7a6ebe1b793aU,
  0xbdfee3f1bddc6975U, 0x3c2d08b2bdc96662U, 0xbe0c89e5bd6dcd99U, 0x3d59d94abc225a1aU,
  0xbd07bd1d3db2aa04U, 0x3d5d95b53d340be1U, 0x3d07ae83bd111278U, 0xbd8ed6893bd7e730U,
  0x3a5043eebda2fe49U, 0x3db3dc023d13f700U, 0x3dd68d253dfbfdb7U, 0xbe269302bd85302eU,
  0x3daf4d12be0eb5d8U, 0xbd8c03e7bd89a5b7U, 0x3d0a6c963db54625U, 0x3dc1bf5bbdd26249U,
  0x3e0e25a73cedbbe4U, 0xbde105003dbe6797U, 0x3c4cda2abe16b631U, 0x3db83b33bd6ca114U,
  0x3c9747e23d8b309fU, 0x3d489da53d3fe3c0U, 0x3db7d9603c81511aU, 0x3cac09a03ccece48U,
  0xbdba76733ddaba72U, 0x3d151bc13da274d0U, 0xbd14f59ebd12a10aU, 0xbe0860e03dae8599U,
  0xbd638276bccca059U, 0xbdb996cebdde5168U, 0xbd3015643d17f500U, 0x3d4b4afcbe825662U,
  0x3e143bc7bd8cb215U, 0x3cb2ec003d419025U, 0x3de92f7d3d7001e6U, 0x3d82cab9be515a56U,
  0xbc5aeb6cbe1432ceU, 0xbdb1b113bc171979U, 0xbce2653abe013126U, 0xbc6abcbfbe2725efU,
  0xbc8408573d469aafU, 0xbd7b7418bd545e97U, 0x3dfa20c5bcb2c6baU, 0x3ba459963e05c84fU,
  0xbda7c08cbdb5fac4U, 0xbddc75143e2ce893U, 0xbd24d2183c7b0812U, 0x3d899e27be6a4dd9U,
  0x3dadcecd3c1dbe0cU, 0x3cf86245bc0bf3d2U, 0xbb9c24b13dab6605U, 0xbdd8cb76bd625af6U,
  0xbd96270d3d5a67a6U, 0xbdeb1bc83ddf9a6cU, 0x3db86ff23ab4239eU, 0x3d2f37f4bc6e9c09U,
  0xbbfee9863dadf8f7U, 0x3c8908af3dbc0f53U, 0xbb9be001bca9a6e9U, 0x3d340ae5bba4982aU,
  0xbd063be7bdd3e621U, 0x3d8023ca3d362eddU, 0xbb287fc03db5cb33U, 0xbd4d5251bdc1eac6U,
  0x3cad47e73c3a1b90U, 0xbdc086cbbdda6b04U, 0xbd11702abe231b48U, 0x3df083af3d058e9fU,
  0x3d9e78fb3d3e70d8U, 0x3dcbdda73c63127aU, 0x3d30dad2bcb7d1afU, 0xbce2febfbd527197U,
  0x3db37613bae0061dU, 0xbd72bbe63e186ffbU, 0xbe0e4f3d3d0edd52U, 0xbda1eddc3e02aba1U,
  0xbcf60aaabd4d0d6cU, 0xbd91824bbd501ca0U, 0xb98ebc6e3d27f211U, 0xbd529393bd824b5fU,
  0xbdbd0372bdf19287U, 0xbcf5724abe0fec4bU, 0xbc486cfd3c9c92b2U, 0x3dd8ba873c4862c6U,
  0xbdec7a2bbafeb0a4U, 0xbcfd2f77bdbca880U, 0x3c351ecdbdd0d896U, 0x3d5dbb03bd8fd890U,
  0x3d7640a3bd0587d3U, 0xbd2a0614bd542dd7U, 0xbdd3f076bd9a5287U, 0xbd3304edbd573a88U,
  0x3c46e090bc889611U, 0x3d3146b8bdcff810U, 0xbc8ac41c3debfb21U, 0xbc4b6febbe2b2a99U,
  0x3dcd50c3bdc1ef71U, 0xbced40583df4f275U, 0x3c09d0f63d7d4ae4U, 0xbd86f73abe004838U,
  0xbba92f87bca9f8c8U, 0x3d00c1eabc326288U, 0x3d10bd9bbcf6aaf2U, 0xbcfa837d3d1f4f75U,
  0x3ddbdfe03e7abab2U, 0xbd4d2371bca0c0b8U, 0xbdcf75233e074891U, 0xbdd2fac5bddd5455U,
  0x3d0d0e1cbe039fa5U, 0xbd2190843d4fe8a7U, 0x3dc325493ddfa889U, 0xbc3ea94fbe14300cU,
  0xbe7737483dda09d4U, 0x3cb81d6bbe1bb740U, 0xbe7b0380be356f90U, 0xbd060cf63bed1bb8U,
  0x3dc42c753e0c29afU, 0x3d8720debe044d6bU, 0x3e4b8cf7bd89b0eaU, 0x3da6aee13d53f5f3U,
  0xbd274428be4941ecU, 0x3e1ccefd3e1c21f3U, 0xbde5da58bd4a6100U, 0xbdf4d73a3e0c6f0fU,
  0x3bbd44d9bb9a56a6U, 0xbe287378bc8ec4bfU, 0x3c911fa1bde24db7U, 0x3d9fb15abded1a4aU,
  0x3e3b9af4bdd06217U, 0x3d67ab603d0fa965U, 0x3d6d4ebcbd9c40c3U, 0x3da8ef353ce76745U,
  0xbe155ce9bd3bfbf2U, 0x3c1c6c0dbd9df6aeU, 0xbcae18f1be47744fU, 0x3d4b7f99be12d079U,
  0xbdcbd8813d3d9387U, 0xbe091240be12bb56U, 0x3d7d00a2bdbf8867U, 0x3bcc753ebda31a7dU,
  0xbbab68cd3abe61d3U, 0xbd028b47bd8aa4c6U, 0x3de3e7c23dd39829U, 0x3c805458be26862dU,
  0x3e244bc0bde3ac8bU, 0xbbbc4fa13deec5a7U, 0x3e0b99cdbc8919fdU, 0xbd9c1bc4be1c0a0cU,
  0xbd1cef283b58965fU, 0xbd8cd476bd448897U, 0x3d12690ebcfe803fU, 0xbde22bd2bd1b3e5aU,
  0x3cccc5f93e5a4feeU, 0x3bd2665cbc885fecU, 0x3d15bc4cbd3b70f4U, 0xbdb3d8743ce73488U,
  0x3d2d48c4bda59ff1U, 0xbe2bdf963df61250U, 0xbbd5dc4c3e32da0bU, 0xbce8ef61bda83600U,
  0xbd82261a3e0362a1U, 0xbe1908e6bd9357caU, 0xbe0e2447be2cc539U, 0x3d9cfea2bdcedad2U,
  0x3e3000a03e133eb8U, 0x3e6683e83c2347d1U, 0x3e5709e33d5788b8U, 0x3df877a83e01165cU,
  0xbd8695d8be26e69fU, 0x3ca074023e43e66fU, 0xbe31db0b3ce0de58U, 0x3d8787dc3e3722cfU,
  0x3d8628423d621029U, 0xbc99f56fbc71a0f8U, 0x3deef869bd5ec0deU, 0xbd209ee1bdf3334eU,
  0x3dea11373e0a5ab6U, 0x3e24e3893d24dd4dU, 0x3d0d89543dc7a5a5U, 0x3dc44a4b3bf1113aU,
  0xbbea7caabd51ada7U, 0xbe20704fbcea844aU, 0x3d6f674fbd4089aeU, 0xbbe6d4b0be182f60U,
  0x3df87cfc3e52ee76U, 0x3da3281cbc15050eU, 0x3e220ecc3b0fadc5U, 0x3d91a55abc92af5dU,
  0xbd94d176be169a5cU, 0xbdea02433d65299eU, 0xbd8b226f3c7fdd74U, 0xbd1b866abe1413dbU,
  0x3e12f9a0bda9bea3U, 0xbdb8a1bc3ddf1a9bU, 0x3de961f43d2cdc99U, 0xbd924da23e0176d2U,
  0x3e1bfbeabce75a89U, 0x3e00b40bbd808297U, 0x3ce52b8a3e1b3bc4U, 0x3d3db4bd3bd6dec5U,
  0x3d95a811bdd8b72cU, 0x3dced7e9bd85f014U, 0xbda496edbd3feb1aU, 0x3e0e98e0bd3f046dU,
  0x3d195ef23d34b369U, 0x3d34aa2ebde045a0U, 0xbd5612463df42713U, 0xbe470df03e8305f9U,
  0x3e2c148dbaaba344U, 0x3e2301be3d422b0bU, 0xbdd0d37d3d9bf969U, 0x3b0330cfbda8779dU,
  0x3d8a06153e2c6092U, 0x3ca1a503bd9917d9U, 0x3d7cbc653dee8475U, 0xbe04470f3d728db5U,
  0x3d7731fc3d309d69U, 0x3ddcc47bbd9aa10bU, 0x3dac9308be2e5727U, 0x3c8f74933c962fa0U,
  0xbe3977623d967c0fU, 0x3c067bc7be0afe8fU, 0x3c8f3d3e3be2e64aU, 0xbe7082d33e94a0a7U,
  0x3e0b39213ddbf31bU, 0x3d340d293dd020eaU, 0xbdbc1036bb26c4b5U, 0x3b9dcd56bc0bf37fU,
  0xbdac551dbd6a7152U, 0xbc35daa9bca6765dU, 0xbdbc639b3d872b0fU, 0x3d26fda03d3098f0U,
  0x3da373823d3f1b37U, 0x3d3d225fbaae0e33U, 0xbe13a17f3d609b9bU, 0xbcaade41bda26a6cU,
  0x3bdd0cb43df079f1U, 0x3dd3df02bda2f9acU, 0x3c1a9d57bd8f2fd3U, 0xbd1a66a93dc5f280U,
  0xb950cbcb3d8b0914U, 0x3c8417753d88312cU, 0xb8ec45b2bde7445fU, 0x3add7a70bcb4642eU,
  0x3dde7c8ebc6d71b9U, 0x3da058d33c882d22U, 0x3db9e8133e15f74dU, 0xbbbc93abbdaac96eU,
  0x3cdeeb683bb3c98bU, 0xbda523b8bcd03f13U, 0x3d28a5c1bd92572aU, 0x3dbd642dbd809e10U,
  0x3d88f1343d9fc0efU, 0x3dff5bccbd1ad783U, 0xbd9513adbce3eb6eU, 0xbb9446b43e1a6eb2U,
  0x3db5ba863de93dd5U, 0x3c7115e9bdac1e98U, 0xbd6876c43dd97a56U, 0xbd8101e2bdf2ba35U,
  0x3cbcf06e3c487d67U, 0xbc2b66b8be01e533U, 0x3d87c20a3e008314U, 0xbb52b277be2836a7U,
  0x3e2eb989bdd75d63U, 0xbdd821d0bc545207U, 0x3da634eebdef8536U, 0x3db43d36bca9f33fU,
  0xbe1f9c08bc65a1e9U, 0x3cff8d5cbd8ea5a3U, 0x3be0406dbcc47529U, 0xbe83c2f53ea3dc69U,
  0xbd3855c4bd400bc5U, 0x3d1c1ffd3c2c7335U, 0xbe006bd33ce6ef55U, 0xba69f9cbbc5993c9U,
  0xbb59ef9a3cfa2e9eU, 0x3da23574bdcaa94cU, 0xbd9418fb3ca271b5U, 0xbde6c68dbd328bb9U,
  0x3d9d96743d797f46U, 0x3c06d531bda556b7U, 0x3d4e5c4d3d4cc39cU, 0x3e0fdadabd18b618U,
  0xbdad1d5f3e3f4cdfU, 0xbcb1fe6cbd407a0bU, 0xbdeef84fbdccfc8cU, 0xbdc7c22a3e0cfaaeU,
  0xbdc6ea543c0dca22U, 0x3dd204b43a97e4b2U, 0x3e2d09adbda473e6U, 0xbde5316dbda187b4U,
  0x3ddf854fbd4c4875U, 0x3dc083583da13d1fU, 0xbd6cb335bddeda21U, 0xbd946d683de724aaU,
  0xbc2d9a45bcb107b6U, 0xbde3e3e33d678c12U, 0x3d6691703e58cf9aU, 0xbdd7e6c9bce5058cU,
  0x3e1c98d5bd8360fbU, 0x3dc8873e3e04640fU, 0x3cb5ac403dadb7fdU, 0xbd46a0033d6d1274U,
  0xbdaf8ebcbd62d715U, 0x3caec87fbdea9bb0U, 0x3db4cffcbd967594U, 0x3d649784be097261U,
  0x3d9a126d3d3ffb03U, 0xbd0c808e3d9f28b7U, 0x3d2e444f3c948d6eU, 0xbd962a163da47044U,
  0x3e2b02313c8c8b47U, 0xbdb976d8bcd854c5U, 0x3c25ebcf3cc3e05eU, 0xbd7c2ee83c7783deU,
  0x3cd39436bd58bd13U, 0xbdfe4af6bdf065ecU, 0xbe039e28bd6331a6U, 0xbe2f4c383e1a4afbU,
  0x3ca970533db9d167U, 0xbcffa457bcabae2dU, 0xbde1b0ac3afa09feU, 0x3cf4cf0dbd48609aU,
  0xbda3052cbdc33cbaU, 0xbdd09de83a7a2951U, 0x3d12ca69baae1f18U, 0xbdce652cbd054429U,
  0x3e27be033d9a3e56U, 0xbd50066f3d65bf57U, 0xbdcee2f7bc5441eeU, 0x3da13c37bdab5aadU,
  0xbb2219903d00613eU, 0x3da5b68fbdb3145aU, 0xbdecf37a3d32bbc5U, 0xbcd084113dcaec5dU,
  0xbd756c8dbd04c353U, 0xbdba3265bd42a3c2U, 0x3e0133493d46f611U, 0x3a1808cb3d4c311fU,
  0xbdaef474bc31fe9bU, 0xbd92bcfc3d4bf8f0U, 0x3dc12bff3aac0ab4U, 0xbd967c0e3d0ed5e4U,
  0xbd0edd073b7c5b5fU, 0xbd33816c3d215523U, 0xbd84380b3dd5fe03U, 0xbdcd4a0dbd9543ccU,
  0xbd17e98e382ddbb8U, 0xbd9cace23bdd7adfU, 0x3d8acae0be1876a6U, 0x3c811f9ebdc33176U,
  0xbe0eee43bd2f23bdU, 0x3bb91b843b8506a1U, 0x3d60651abe2dfec4U, 0xbe2933953d67c16dU,
  0xbd20cce1bdbbaddaU, 0x3d0aff27bba47e0eU, 0x3d89c9bbbe058e63U, 0x3d8a27273d93224dU,
  0x3c55a697bcb30c9bU, 0xbda071b6bc9ab312U, 0xbddb1c5f3dbc9e56U, 0xbdb64c8d3d2024fcU,
  0x3de2552fbc4c00eaU, 0x3e3296db3dc8a0c2U, 0x3c4f07b1bdce8344U, 0xbb8fe3013df97fb4U,
  0xbd8b9b0ebd2a6ad6U, 0xbd3eaba1bd4ef035U, 0xbc2183223d63e0a9U, 0xbc368c453df07a06U,
  0x3c03bdac3dc5057aU, 0x3da0ed6cbd8d2647U, 0x3cfa7debbd053c6cU, 0x3d433bf13d133920U,
  0xbce8593cbdaa219bU, 0xbcea578f3dac5d3fU, 0xbd8b9ac2be1c8d4bU, 0xbd1d65293d9d6342U,
  0xbe0699ff3e215f38U, 0x3e0d9a04bbcadac3U, 0x3cb069443d0e90b7U, 0x3d70e2223dba40b2U,
  0xbda487423d95d0ecU, 0x3c8eaf2a3d7a7faaU, 0xbd05a5e4bb5b8359U, 0xbd234f81bdcbbc7dU,
  0xbd13f2d8be11f4b6U, 0x3c435bf33deafe9bU, 0x3d80b97dbe2e71f2U, 0xbdeeb5983c9135b3U,
  0xbdfc65ef3dbb07f3U, 0x3d706970bde0a237U, 0xbd43ca2b3deba74aU, 0xbdeb74f3bd945c6eU,
  0x3d2a558abc724594U, 0x3c582e7e3e108e89U, 0x3d980aa2bdcbf0aeU, 0x3da36feebe1e64bfU,
  0xbc0f4683be1dacf6U, 0xbe0055e5be00241eU, 0xbb60f2d7bbc98ebeU, 0xbdd757fbbc7d6b20U,
  0x3c95b43dbdaf0fbcU, 0xbd0902c53decf973U, 0x3b68967ebc255082U, 0xbd87141d3d62201dU,
  0x3bace70bbcf8f121U, 0xbd6370863d2d308bU, 0xbc61e8063d37f7d1U, 0xbcc9456abc058101U,
  0x3d82b805bdd02480U, 0x3d24e7523ce353dcU, 0x3d66f62cbd359674U, 0x3d8f77df3d8fa94fU,
  0xbce4c8e1bddd617aU, 0x3d0901a93c437739U, 0xbdc307a2bcd200a5U, 0xbd7bee69bd452a0fU,
  0xbcfbc5303d5b9c21U, 0x3d0cbcb5bdc2931bU, 0xbd5183283cfbd73dU, 0xbe0ed0cbbdcec45dU,
  0x3d04aa58bd9b2a6eU, 0xbca97fbcbdbd7cfdU, 0xbd9e03cabd7968b4U, 0x3dc7e2cdbc6e5592U,
  0x3c9e64033bc8b827U, 0x3d22db36bd8cfde9U, 0xbdaaf7cebc8cd56aU, 0xbda9999b3e1f6f89U,
  0x3d93b2963ddd8c09U, 0x3cf97b723df40cc9U, 0xbbe842ecbd98a0ffU, 0xbe00617abe1b52acU,
  0x3ca29d2fbdcc2071U, 0x3c4386ed3e0248b3U, 0xbd8f0ff0bd56e75cU, 0xbe08f5023d55b66aU,
  0xbcc54a24bced458dU, 0xbbb327b6bd1a690aU, 0x3dc669283e2d8656U, 0xbd8d1ca6bcb4e434U,
  0xbe1735b3bbcb7226U, 0xbcf18510bbf50d53U, 0x3c4e07953da43d68U, 0xbd5ceda13d27b548U,
  0xbdee6d22bdd5e342U, 0xbe1fb5efbdef0a51U, 0x3d9c12ddbdeb9da2U, 0xbdc521e3bdfc7272U,
  0x3d83059dbdcd31deU, 0x3d89a6883dc999a6U, 0x3d77c8f7bddcadddU, 0x3d284f813c2985ddU,
  0xbd95d4303cdf0c69U, 0x3c397aa63d306389U, 0xbd6fb19e3da62ae0U, 0xbdd0523bbca8d405U,
  0xbcaa2c45bd908a66U, 0x3d92fce53da27e9dU, 0x3c70e3c3bd179f1aU, 0x3d2d8a273dba58b8U,
  0x3dc61ff93bc18a46U, 0x3c708131bdc5fc10U, 0xbe0803423daee6d0U, 0x3d8aa19a3e126bdfU,
  0x3c6dc3e03a70c8baU, 0x3d4f6eb9be3a5878U, 0x3dd013d63d1bd65fU, 0xbe534efbbdeca7c6U,
  0xbd335599bd40e751U, 0x3d84c9033c84ba45U, 0xbd73ba66be6d7c5bU, 0x3d5404cebd8b467aU,
  0xbd3b9f6e3e115d09U, 0x3dcf5c37bd5e89c1U, 0x3c05e6553da4a4c3U, 0xbdf075f83ec08a77U,
  0xbb3e51a13dae352fU, 0xbce718d93ba8d0e6U, 0xbdd99dd9be546b23U, 0x3bd93d4ebd24703cU,
  0xbd2b68d4bc57cef3U, 0x3de66abbbc8774f5U, 0x3db5c8673d152bb2U, 0xbd9809fbbb988c17U,
  0xbca5d815bdb3c644U, 0xbd5c74b9bdcaf465U, 0x3c4b5aaa3e1c6b29U, 0xbe6b82bfbde5358dU,
  0x3d575eafbde447cbU, 0xbd2dd542be01ae53U, 0x3df2073e3c31b400U, 0x3d320981be19016dU,
  0xbe3d0f9fbd0ac026U, 0xbddc0beabdee26f1U, 0xbe5f93cdbe6bc0deU, 0x3d63dc8d3d85f5b2U,
  0x3d2954263c39708cU, 0x3d86750b3d0837ceU, 0x3d5038fdbe553511U, 0xbd24686abd8786faU,
  0xbd3a9959bdb9bb8cU, 0x3d3e785abd59d345U, 0xbdbc1fffbdbc5694U, 0xbe6aed723ce54542U,
  0xbde5c2a0bc074bc8U, 0xbe02dd6dbe7776b0U, 0xbb9587d9bcfa40f9U, 0xbcf7c310be23e8deU,
  0x3e3c69bf3c8d4ab9U, 0xbcaef49c3e13dec2U, 0x3e44fa2f3e01a29bU, 0xbdbf944bbdb91ad8U,
  0x3d4678f73dba60a7U, 0xbde72ddabd8ecab9U, 0xbd4235073da9ca18U, 0xbcab79a83e059356U,
  0x3cae336b3ca26c23U, 0x3dcede3ebe06a9e2U, 0x3d201d2dbd83494fU, 0xbd28a899be31a7a7U,
  0xbcc991ebbd8f4e85U, 0x3d56e03d3e3e2df7U, 0x3db26e83bc1bb18cU, 0xbd48f998be171eccU,
  0xbd2e6848bdd36f5aU, 0xbd91a485bd5b4d8dU, 0xbe26c186be2a75f7U, 0xbcf70dcfbd6c4832U,
  0x3cc1bbf83dcc9efeU, 0x3dba1c023d5888d0U, 0x3c494779bdab0febU, 0xbd5e69883d982228U,
  0xbd1ba30dbc26a105U, 0x3cb18d513b95c93aU, 0xbcb65f573d221e81U, 0xbd9a0333bdce87bdU,
  0xbd0bc94c3cd5725eU, 0xbe2bce39bda947f2U, 0x3d97ea343d6e9998U, 0xbd9170b9be2c9495U,
  0x3cbc6d8bbc5aef59U, 0x3d83076abd0ed1ffU, 0x3d5c146ebda7ee29U, 0xbd436370bc88f825U,
  0x3dafb01a3d417be4U, 0x3d821fd2bdb80e3eU, 0xbd1dbf363b86beb2U, 0xbd742369bd9445f2U,
  0x3d30ac133c2f7367U, 0x3d9b5369bdc37e46U, 0x3dbc299d3d16e857U, 0xbe4700c83d69edf8U,
  0xbddd8e0dbbb2587cU, 0xbd1a1472bd0fddd8U, 0x3c423cf63a0b6517U, 0x3d42cc75be2dd186U,
  0x3e2352e6bd88476dU, 0x3d651ac3bc1373abU, 0x3dd058b13c84459cU, 0xbd849736be1d1b06U,
  0xbc4c81303d472a1eU, 0xbda7b013bddc8b8cU, 0xbb7bf7a13d2119d5U, 0xbd566ac1bc2ef0c2U,
  0xbd00476e3d77aaf2U, 0x3cb1b6f4bd82e630U, 0xbda79c4ebd479d31U, 0xbc8ee1983dbdf422U,
  0x3cbe299dbd44f56aU, 0xbe0037603e16ad1cU, 0x3db11430bd294454U, 0x3c633cdebe0fdf18U,
  0x3d252668bcbed2a1U, 0xbcf5780fbcba229dU, 0xbd0277e4bdf7dcfcU, 0x3c3889e5bc49311fU,
  0x3c5f1f1abd8739fcU, 0xbd9a4619bd3c2c9eU, 0x3d52cee13d825fbbU, 0x3b8e4bc73c40e3f2U,
  0xbd8c2c0ebc80b9feU, 0x3db289d63ce503dcU, 0xbd0b4e0d3bc5979fU, 0x3cde8aa23d765c8eU,
  0x3de0383dbd05d4a8U, 0xbdb084d7bd857959U, 0x3dff4b963dccdcc6U, 0x3d4073c1be28a97eU,
  0x3e127465bdbba196U, 0x3c04bd1a3d941872U, 0x3c185d5d3ddb116eU, 0xbb8dff1bbb647127U,
  0x3dd95bb63d80c558U, 0xbcf0b5783d9f079eU, 0x3dc1289c3dc5edc6U, 0xbae58149bcfecf4aU,
  0xbd8023613dbd9f76U, 0xbbb7ebec3c2dfae6U, 0x3e3447b53e26db69U, 0xbdd716d13cd86cc3U,
  0x3cc88fa7bdfb34f9U, 0xbde36b203ca3e65eU, 0x3c3c3f91bd33dd28U, 0xbd928d03bda79ef2U,
  0x3d9272323e082918U, 0xbdfa0c7a3c208572U, 0xbd8b9113bddc2349U, 0x3c96b051bd9cb2b8U,
  0xbdc68f6a3da51153U, 0x3e0724c73d6b3904U, 0x3dd347f93dcdc56fU, 0x3d576d303d1b5605U,
  0xbdfb283bbb396279U, 0x3ca09b553e070849U, 0x3dc6dede3c43b204U, 0xbe1720cf3dfb62c2U,
  0xbd4031eebe0a5e33U, 0xbca6add7bd87ca51U, 0xbd99e81ebd013cbbU, 0x3de1b3b6be6b2b5aU,
  0xbc905fe6bd981c89U, 0xbdf1b657bd88de72U, 0x3a92358fbda38bafU, 0x3bd46b48bde232c2U,
  0xbcf75d60bdc6d1c0U, 0xbdea6ba8bdb42a6bU, 0xbdae68a93d6d6b3bU, 0xbd96d91dbdcdea40U,
  0xbd84f8733c791cadU, 0xbdf8d00fbdd5ae20U, 0x3cc99fb8be146231U, 0xbc869edebe1d28a6U,
  0xbe24e6d03db9ad5bU, 0xbd498282bcb9098aU, 0xbe05851d3de1664fU, 0xbd65bad13e80d652U,
  0x3da001babbb56c53U, 0x3c1217803cd04521U, 0x3c9971123dbc6eaeU, 0xbdb43da5be5c303cU,
  0xbc969ff3bc737ff8U, 0xba6dc2ccbd957cc1U, 0xbe20a74abcdf6738U, 0xbd7fb098bd83ce9aU,
  0x3c69a8303d5b75c1U, 0x3cd5b5b7bccc18e4U, 0xbb8d4337bd812466U, 0x3db06c6c3c878fb1U,
  0xbc1a6a25bd21e3bdU, 0xbd92ff03bd01038cU, 0xbe116b3c3d026d46U, 0x3d62db8a3e7b7db4U,
  0xbc69b57a3d94c714U, 0xbda5fc2c3c81b9daU, 0x3c69202abc85ad3aU, 0xbe145c1abb6dce42U,
  0xb82693bb3bbb4bebU, 0xbcc66a273e3005d1U, 0xbdd97894be5a3fc7U, 0x3d36f03cbc4838cbU,
  0xbe2a20503d968796U, 0x3e046843bd7acd04U, 0xbc71afa73dc4c076U, 0xbe19b45bbc5252d2U,
  0xbd6a15a6bd389eb0U, 0xbd9f3b213e069ba4U, 0xbdae81523cf932d7U, 0xbd6a0ef1be14cd81U,
  0xbd4288e5bdc5f817U, 0xbe266c6e3d99d18cU, 0xbd8099433d4557ccU, 0xbcd17158bcf345caU,
  0x3ddfbabfbdbc7e90U, 0xbbb2096cbdbe544bU, 0xbd1f255e3da13198U, 0xbd256e0d3bd1b32aU,
  0xbdc3df89be048372U, 0xbdb56db53c868268U, 0xbca7efd1be539dc8U, 0xbd36411fbe33c388U,
  0xbceb89683caf7ed5U, 0xbd8efd073d3c6fbcU, 0xbdd765443cbf6559U, 0xbdff14fb3e89eee9U,
  0x3dc4d50abba5046eU, 0x3d4915be3dd11af6U, 0xbe05e2bc3e703209U, 0xbdac9171bddf0b41U,
  0xbe2efce1be2ce6e7U, 0xbdddd421bdcb8987U, 0xbde5debc3b4dcd1eU, 0xbdc2b0eabc781175U,
  0xbddee1f53e0bf35eU, 0xbc5806c23d9d3d4eU, 0x3ce99d81bdd81c65U, 0x3d7c1f4e3d7b7ae5U,
  0xbd8753683d352187U, 0xbda7d99dbb207d22U, 0xbde549763da8b147U, 0x3d8340863e916d50U,
  0x3db2a90fbd8f040bU, 0x3e1e57ac3e18c7eaU, 0x3d6011b1bc8c9749U, 0xbdd4ec2ebd808d20U,
  0x3ded1884bdd5b3f5U, 0x3d0004073e5979fbU, 0x3d85cdfcbe63fad3U, 0xbd99d1463d952ffeU,
  0xbe043bc53dd405e9U, 0xbd269c75bd91abe5U, 0x3db8d2643e20b9e1U, 0x3b04a3ed3d96fc4bU,
  0x3c97be67bc9bbceaU, 0xbc0998473d27e821U, 0x3d9473813d184fc2U, 0xbd8f5e4bbdbcb1f1U,
  0x3d9eaf26be0b11acU, 0xbdbf570bbb46c41aU, 0xbe035f043b29960dU, 0xbd513d13be0679b8U,
  0x3d63c0d8bd768a0fU, 0xbdabe830be29a826U, 0xbd910ed33dfe31d1U, 0xbdde18c9bde8572dU,
  0xbdf73bb7bde50909U, 0xbd9e9d4dbe1acca8U, 0x3da926f5be3d5730U, 0xbcc0c397bc5af91dU,
  0xbd94eb82bd10583bU, 0x3e12df89bd45eca4U, 0xbd807c68bcb7ce08U, 0xbdfaf5873e7b1a67U,
  0x3ca099943ae68422U, 0xbc3b3dbf3d9c927aU, 0xbdbdfddf3e237141U, 0xbe2c806bbe451c48U,
  0x3d30b914be129f79U, 0xbd962f0fbbf97e78U, 0xbdd04a18b94ddc6aU, 0xbe1982fabe00356eU,
  0xbe06a176bd0c4ae7U, 0xbd73100f3d3c851cU, 0x3d2fedfcbe18dcdaU, 0x3dc46e0dbda2f193U,
  0xbc89d8ca3d5ad307U, 0x3c95a3133cda7fbdU, 0xbe149fdf3de7deeaU, 0x3d0968f83e8d00c3U,
  0x3e3dd450bd64e24fU, 0x3d4ec58c3e1acf1dU, 0x3cb6c2a0bc57cfecU, 0xbe07075a3c93428cU,
  0x3e550ddfbd0872feU, 0x3d353dd63dcd839eU, 0x3abebda53b8d55b9U, 0xbd20a9cb3db03670U,
  0xbcb5fb1b3e024c52U, 0xbbbb84b4bdece624U, 0xba3b4d3e3cd9b56dU, 0x3da948773d442d7bU,
  0xbe265e3c3c004078U, 0xbd80728f3d3e4c44U, 0x3d7b4bcd3e18b8f4U, 0x3cbfa32abb3872abU,
  0x3d1edd193de3fc99U, 0xbdbd365fbc373c95U, 0x3c9e279c3dc63981U, 0x3dbb49e83d8c6c18U,
  0x3d02ea893ddf083aU, 0x3b98e19ebca91c0fU, 0xbdd577e73c859de7U, 0x3da9a41fbdf016cdU,
  0x3ba6e5ffbc982e52U, 0x3db737e83c1f3bbaU, 0x3d55fe61bd864469U, 0xbcf48aecbd8bc19aU,
  0xbcc046753e7cb5d2U, 0x3e0f9b2abdfadbc4U, 0xbceec8983db4953cU, 0xbdf68ed23e2f9913U,
  0x3e1460e93de05db2U, 0x3e178814bda0a5c9U, 0x3cc058bdbd525582U, 0x3e0329893dc0f82aU,
  0xbd3a2bbf3e01bf1eU, 0x3d3c717dbb1b3508U, 0xbd946c693d859c9aU, 0x3d77b3ecbd9d679fU,
  0x3dbfff84be2e1ce2U, 0x3d673dfd3bbfc6faU, 0x3dfa31edbdeb2eedU, 0x3d3ef1bebe0f6e49U,
  0x3d2429de3d480bc9U, 0x3e1b2313be2e8594U, 0xbdfc6e513d4c695fU, 0xbd4187283e29864cU,
  0x3e02b796bc0d77ddU, 0xbda13084bce7750fU, 0x3ce8d2513d6caee4U, 0xbd07873e3e1fb2b4U,
  0x3df786a33d96f32cU, 0xbb8ea232bdaa9845U, 0xbc927ba23b00b53eU, 0xbd508668bdb3d5deU,
  0x3c982796bdfa19e2U, 0x3d145f66bc245a09U, 0xbdb077d93c838413U, 0x3dfa04e0bdc407a0U,
  0xbc9a69013d9222abU, 0x3c7dfd07bd1974cfU, 0xbdf22f1a3e067196U, 0xbc9365a93e3e92d8U,
  0x3ce9d9713d3ef03aU, 0x3cea7b0f3d9dbeb5U, 0x3b995c22bdbc26a9U, 0x3ce38d3b3e4558bfU,
  0xba1e20a83e2115c5U, 0xbdfb03f6bca353c3U, 0xbd9557ad3dc624d9U, 0x3e0d8da6bde4af82U,
  0x3cea054f3b841bbaU, 0x3b554d66bd18606fU, 0xbd75264cbc3d7052U, 0x3d4b6e3ebdba4581U,
  0xbe01ca2b3e6999e0U, 0x3dc26ff3bd84e10eU, 0xbdaf11013d9f2b29U, 0xbe2e8c963e0acd86U,
  0xbcfcbe7abc636c36U, 0x3d22661fbd1755ceU, 0xbdb0a9713bf7e54fU, 0x3c98991f3dd65890U,
  0x3d93bbc73d62de7eU, 0xbcc64dc2bdab3d52U, 0xbcb813fe3dfcaff5U, 0x3c9b241abd85fe65U,
  0x3db893d0bdd7ab2aU, 0x3ba09625bce64672U, 0x3d97cc7e3d85a8eaU, 0xbcb50db8bcdf7c5dU,
  0xbdcbaf8cbdfe5bc3U, 0x3d7a3f61bd88b5d8U, 0xbc5ab888bd8b2e62U, 0xbe1d94ad3e7e274fU,
  0x3d983d9fbc93687bU, 0x3e0b1fc53dd4609fU, 0xbd84e1663dcf7737U, 0xbcabfc43bcb10d12U,
  0x3bd43eb9bdcc9de5U, 0x3cb2cfacbde3a484U, 0x3d26a8bd3d7c5484U, 0x3cffe57fbe129c6fU,
  0x3e5169dfbdc1560aU, 0x3b61c814bd604ccfU, 0x3dc6b4883c180b41U, 0x3dc4a7723bcc547bU,
  0xbcb47b673ded94d4U, 0x3d379b30bdd8007eU, 0xbcdbd031399aab3cU, 0xbd55b7dc3e897647U,
  0x3c32e7a4bcaa8f3cU, 0xbd8f4e41bce82b5dU, 0xbdbf4cbc3ddbcc4cU, 0xbc8389a33d901fa7U,
  0xbd7f5c183d2d2125U, 0xbe00628abdccc219U, 0xbe0877a8bc0a36b7U, 0x3df12075be3582bdU,
  0x3dc85971bd762784U, 0xbb000520bdb2e754U, 0x3d983be23e1b3222U, 0xbd069dadbcdb888cU,
  0x3d2c65a13e52ef07U, 0x3e01f3d83d0edbd9U, 0xbdd384143defd435U, 0xbd00a9163e35adb9U,
  0xbd87d10b3dd3903eU, 0x3e22d596bda40ac4U, 0x3cd03b3b3bdc9bd3U, 0x3dd1348abc11b887U,
  0x3bd694f63b8c9201U, 0x3c2715f9bda52975U, 0xbd98d502bc95241dU, 0x3d042e5dbd9aed23U,
  0x3d519993bde8942fU, 0x3d63a2b7bcc91b0dU, 0x3c13adf33df72cbaU, 0xbdcfa951bdfb30abU,
  0x3d9d542abdc5659fU, 0x3d45df4cbd46fd5eU, 0xbdea6e2abdf6001fU, 0xbdfe6bbc3c9701eaU,
  0x3d8180023db0f150U, 0xbd137161bdad16b6U, 0x3c8bcb2dbdb9fbe6U, 0xbc9bca33bb4af6cfU,
  0x3a9e664e3ceecc8bU, 0xbdb15bf93dc5b2beU, 0xbd8ec359bd4cebceU, 0xbd865a873d80f9e8U,
  0x3e289760be054b92U, 0xbd1f4ae53ce7510cU, 0x3c46b8a13da37334U, 0xbda4b6523d222956U,
  0x3d506e593dda6480U, 0x3a075304bcbb37e2U, 0x3c3b1de2bc8a17c4U, 0xbde4692d3e15cfc9U,
  0x3d265904bc4ad3f7U, 0x3c909c963c13fa2eU, 0x3d8485d1bbd8fedfU, 0xbbd095e33d91d91dU,
  0xbd0140c53c62b377U, 0x3e1010c6bd3cc1a5U, 0x3e1236393c2a7c31U, 0x3db58ac33ca98357U,
  0x3e3fbe42bdcb6426U, 0xbd17c15e3e0869c4U, 0x3cd510b4be06a2d9U, 0x3dc59bc33d455dd8U,
  0xbce0c7563d5722b3U, 0x3befc04bbcf54e4cU, 0xbcd0e94a3d37ae4bU, 0xbd69a09b3eb849ccU,
  0x3d089a94bd1e6516U, 0xbb140517bd73a860U, 0xbe0e6d3b3c0e5357U, 0xbe3e8655bd17eb7bU,
  0xbddbaa82bb807e5fU, 0x3b5301fd3dbceeb7U, 0xbc5687b43dd6522fU, 0xbddcfcdebd43a080U,
  0x3e1b21e1bc81ef3dU, 0xbdd086433bc22aa0U, 0x3d621957bda985e5U, 0x3df6eba8bdd6d99fU,
  0x3ce6f408bcde5c95U, 0x3d472f56bd359fd1U, 0x3d21ec61b9499191U, 0xbdb7c6dd3eab0791U,
  0x3cdc9653be0e451cU, 0xbe04185b3ce2cab3U, 0x3e09a0d0bca524f9U, 0xbc914f923deeacf7U,
  0x3de67d96bd4c6279U, 0x3d515631bd8e2eb9U, 0xbe3453edbd35d116U, 0x3a1148383c945d0cU,
  0x3e1800c0bd22ac42U, 0xbd510fd0bd6db6d9U, 0xbe1c24e13d66849fU, 0xbc29e4c9bdb9480cU,
  0xbcaefc903d8ffd1eU, 0xbda0a4d9bd47fb78U, 0xbcdf4dd3bcea774eU, 0xbd96c9d93e260d17U,
  0x3da8cf503d66ad33U, 0x3d93d6123cb99591U, 0xbde48c9d3d0d82baU, 0xbe47bc033c54d6caU,
  0x3dc9e3533c6521e8U, 0x3d88f99bbc810874U, 0xbbc4b8b33ba9e10dU, 0x3bbe76cabddc36b2U,
  0x3dda6f5dbd83cd4eU, 0xbdcef3debd4f6d8aU, 0x3e15dc4bbd9e69e5U, 0x3db00f713d5df64fU,
  0xbd3bd7ad3d2fafceU, 0xbbe349d6bdc3b298U, 0xbb1bf507bd3fa854U, 0xbd56316b3e9bed77U,
  0x3d8b76cd3d6e6404U, 0xbd9de78abd37a576U, 0x3cba67ab3de4e5a5U, 0xbd8f24223d390944U,
  0xbd2e884dbccd3302U, 0x3d18677abe03e6aeU, 0xbdab0a213c827687U, 0xbdebd5bcbca5848dU,
  0x3d94f479be045bdcU, 0xbd29283bbd811aa4U, 0x3d7608ec3d92a79eU, 0x3ccf9e4f3aa0eb95U,
  0xbd33bc9fbd8c0f23U, 0xbd9d7950bc3bbc28U, 0xbdb1a25ebd853f55U, 0xbe5a63573e2ca99aU,
  0xba61e410bdd0575fU, 0xbd250e44bd6045afU, 0x3dcf73f6bac9e2f5U, 0xbd98c858bd924c6fU,
  0x3dbc5854bdbae786U, 0x3da43a29bd98ed36U, 0xbdca2a44bdbac053U, 0x3e0ea3e23d6a7838U,
  0x3e1ab9973d1c267fU, 0xbd56ea74bc3849d4U, 0xbcdc0f463e10c122U, 0xbcdec33bbdd08518U,
  0xbd9772bb3d57254cU, 0xbcfe7b663c6d3caeU, 0xbdeb5de83cecf25eU, 0x3c532aa23dfa6900U,
  0xbcc585483d9573c7U, 0xbdcb1598bdd88af3U, 0xbdd3ead6bdce2f78U, 0xbc85f8e5bd0582beU,
  0xbd9c78e2be18c969U, 0x3cc4b4313d3d33b8U, 0xbd43a4ad3dbd3585U, 0x3d6a16a43d8f60a0U,
  0xbd084130bc3a5f3cU, 0x3d27d44b3d43f016U, 0x3ceb68c6be087fd7U, 0x3ca1a8603c884bc6U,
  0xbca087203ddcbfe3U, 0xbd54d2b93db1e8f6U, 0xbbf008ac3d1b3ae6U, 0xbd89b2b73e997a78U,
  0xbc137c1ebd752df8U, 0xbdaa8baf3daa9ccdU, 0x3d0097cf3d0ed525U, 0xbe2fd2233c8c5d07U,
  0x3d170dbbbe32efd5U, 0x3c55699abdced739U, 0xbcfef14a3d7da8abU, 0xbd467923bd94b15dU,
  0x3e0437b93d2ba874U, 0xbdd5c3e2bd66c39bU, 0x3cab610ebcad1f36U, 0x3d947ab0bc5e0a39U,
  0x3cd97dab3d9186bdU, 0xbd8a5ba83cc4c84eU, 0xbe06f45e3d099a9eU, 0xbb3170953da3a342U,
  0x3dc06de5bcc28ff2U, 0xbd95e568bd23ce18U, 0x3cd068203c89d32bU, 0xbddf657abd9b6051U,
  0x3db3d52dbd959e49U, 0x3d89fab93b4108ebU, 0xbcc9ceadbd935a12U, 0x3d9607293caf8a76U,
  0xbd4900a93c98f830U, 0xbd8ccefebde82b7eU, 0x3dbd7dda3e1d90a4U, 0xbb80eaabbda88870U,
  0xbdbd794d3ccaf1edU, 0xbd8e5b46bcd7b8d1U, 0xbd212361bd5806b5U, 0xbd17ece13db81f68U,
  0xbc1a57fc3db78d4cU, 0xbd737831bd8c60cfU, 0xbe1ebc2fbe265b40U, 0xbd7aac4f3c90b119U,
  0x3caa3cf93dc4709aU, 0x3ded4f503ca1dd52U, 0x3e13c1c63ca80e5aU, 0xbd80e94a3e037efcU,
  0xbdb5ced73e0c7808U, 0x3d8763513e0d048dU, 0x3c7de4b9bc997a81U, 0xbe05e8ec3d9edd32U,
  0x3d8b1f3ebd5418f3U, 0xbe8051b3be29d867U, 0xbcc4ccd1bd91d3b3U, 0xbcdb0d4abe8790b1U,
  0x3e1965293d5815a7U, 0xbc1ec6a7bd8d6eb7U, 0xbc9d5a7bbd3fd02cU, 0x3dcb2eccbc88b42aU,
  0xbcd4c923bdb78f85U, 0x3d88ddbdbe2b2572U, 0x3dd7c8cabe807933U, 0x3c852655bd8016aeU,
  0xbe06a9483e41f1e6U, 0xbd06775bbdb75b30U, 0xbd7d3eb3be07cefaU, 0xbd8fca153dc7e302U,
  0xbd217bd8be0cb745U, 0xbda0ebd0bddee1c7U, 0x3d4aedef3dd8e4f9U, 0xbdba0fc8be9a02a7U,
  0x3d5fa2c3bd1c058eU, 0xbcf40a613dc0e61dU, 0x3e0101c03dc29bf0U, 0xbca4c329bd6a6e46U,
  0x3c95e6b5bba8200aU, 0xbd89a6323d94a197U, 0xbccda87d3d8aa2fbU, 0xbdb8aa463d8368f8U,
  0x3cba5fa53d0f1336U, 0x3c05c4f53d219795U, 0xbd48abe0bdcb9219U, 0x3c422e263d323d3cU,
  0xbce06d9dbe341677U, 0xbd38eab03e54f8ffU, 0x3d818fdcbd86bd53U, 0x3d2aee2cbe487d69U,
  0xbd988b8b3dff31faU, 0xbde4feb2bdef29e5U, 0xbe3c2a86be6e804cU, 0xbdef1e90bcadd80aU,
  0xbd7bf4f63d2eb7c6U, 0x3e21a80b3cdc411eU, 0x3e0d46fa3db0f10fU, 0xbd2923b83df95a65U,
  0x3d9e2944bdf16e2dU, 0x3dadeb933d8bd7ceU, 0xbd6b3805bd4ad327U, 0xbd7a59d13d87a34aU,
  0x3d540587bdfdfb17U, 0xbe34b432bc789693U, 0x3dee4bdd3ca63b35U, 0xbd7fabe2be14fdd1U,
  0x3d95d887bdb19e40U, 0xbd31ce17bcba4b6dU, 0x3df3dcd1bc0d7787U, 0x3d8f2bfebd6a9da2U,
  0xbd5e45bfbe01466aU, 0xbd2cf017bde23ee3U, 0x3dacc9a2be3a5e9dU, 0xbd908a81bdb61adbU,
  0x3a13cfe73e3c680bU, 0xbdc6dca83c3b2246U, 0x3e02c76bbcd028d5U, 0xbe013e823ddef6b7U,
  0xbdf69024be1ce0eeU, 0xbd7bc2293ce31ce0U, 0xbb6610053e109f15U, 0x3ddbc2d9bebfb15cU,
  0x3d790451bd12ff7bU, 0x3dbc198e3d3b158bU, 0x3e0a4106bcef5fb4U, 0xbde1696bbe18fc0fU,
  0xbcd4e166bdbbff56U, 0xbe392323bc73b252U, 0xbd6e2d243d91110aU, 0xbd5cd7c1bde37a71U,
  0xbe0279f43dba9042U, 0xbdbc73303d632d95U, 0x3da6cff0bdbab64eU, 0x3c2dd071bd696924U,
  0xbdb29b86be48af16U, 0xbd00a4313cbe41bdU, 0xbd31c70c3daf32c2U, 0xbe22d620be5e7b42U,
  0x3dc7af653d56d1a2U, 0xbdf0b8003d64f7ebU, 0xbd00ec00be320597U, 0xbdffd8eabde2080bU,
  0xbd4856b63ddb21a6U, 0x3dfc0aebbc8b68e3U, 0x3e2d1fbf3e13240cU, 0xba7ca63f3d238cbbU,
  0x3dcf9c9f3d19b639U, 0x3c5e1cfd3e169f51U, 0xbdcf5b053d42eb38U, 0xbd84b83f3d8788dfU,
  0x3c80792f3cfeaff9U, 0xbe3a8acdbe0c6afaU, 0xbbc1f0e3bd33b7e3U, 0xbde77d2abe07796bU,
  0x3e202d8d3d92d812U, 0x3c8cde043d0768bcU, 0x3cec538bbdd6057dU, 0xbcc6ca933cf9f3d4U,
  0x3d0549e23c058394U, 0x3e1c1a6bbe1698dbU, 0x3d48fb45be115ec1U, 0x3d237f64bb1aaaf0U,
  0xbde15edb3e43537aU, 0x3d3bed663dc86b61U, 0x3d7cf664bdd0ab42U, 0x3cd6ed3e3e153c6eU,
  0xbdf78b4abdbd3692U, 0xbda5e51fbd4f2983U, 0xbc0e88413d49a718U, 0x3d9a4d48be85a820U,
  0x3d12e44dbe11833eU, 0x3a9e80993d5ca842U, 0x3e0b17f43e04c9bcU, 0xbb8febbebdec494fU,
  0xbdb89f17bcf84da3U, 0x3bbd9cbb3d65aa90U, 0xbdc93221bd9ad303U, 0xbe35aa03bdb07b38U,
  0xbd11badbbcdf7e2aU, 0xbdec5c9d3d7fd881U, 0xb9c5581bbd209592U, 0xbbc4278abde3ecc5U,
  0x3bd64544be6a371aU, 0xbcc048003e362461U, 0xbd83d7703ca86d2aU, 0xbe04272abd91fc25U,
  0xbe021d8dbc91e68bU, 0xbc57736abe218887U, 0xbe24b6b5bd5b8c35U, 0x3db4c19fbe038fceU,
  0x3c194654bd61b044U, 0xbdec106abcd1b80bU, 0x3c867b9cbe0631a6U, 0x3d175e93bce44d66U,
  0xbd8248393d7a0935U, 0x3cd954acbd99c22dU, 0x3d494c7abdf9e757U, 0xbe20ab4abd4aaed3U,
  0xbc99e3b43d89fde0U, 0xbd1116b7bd1a8484U, 0x3ddd94abbda13ab4U, 0x3ca67146bd0dc51cU,
  0xbd868d9a3de6ffa9U, 0xbd0c00403dc4d2bcU, 0xbcb90e2b3c262061U, 0xbce18176bcb99838U,
  0x3d1c02e5bd584ea4U, 0xbdaa8af0bdb056c3U, 0xbdafd590bc74b2d3U, 0xbc3da24e3aeb55beU,
  0xbdc1f9a43c268816U, 0xbd88c00dbccef681U, 0x3e032ab43bbf5111U, 0xbd11e8babd2bd18eU,
  0x3dad0ccfbdd89b58U, 0xbd756255bd649776U, 0x3da4405b3d90109eU, 0x3c21dfe6be04d5fdU,
  0xbd2867543dacec2fU, 0xbc8c73a9bdbc9632U, 0xbe3eb32abd2f2bacU, 0xbce75469bd91c228U,
  0xbd5cc8493e2a4abfU, 0x3e1444dd3d89c9fbU, 0x3e1b2c763e23a542U, 0x3d277aaa3e16c13fU,
  0x3c1194d0bd8f48f0U, 0x3e23ed523e261f00U, 0xbe027f243cc1f877U, 0xbcc877983cdf6564U,
  0xbd7379cebbbe0f77U, 0xbe1e3cf0bbdd0022U, 0xbcce05543c0eaa9aU, 0x3da5569bbd56e576U,
  0xbe2acd89bc98a2dfU, 0xbd08324bbe16839eU, 0xbe51444f3d927d68U, 0xbd2ff1313bca9d3fU,
  0xbdd2f4c23d043aa8U, 0x3d323ca3bcd5bd95U, 0x3dbba38fbc866d40U, 0xbd230e6bbd1b7e2aU,
  0x3da77c693c716cd6U, 0xbc2f04673d93873fU, 0xbd056f64bdc5a908U, 0xbdd79a103d8ad7deU,
  0x3d866485ba8bc000U, 0xbe09087fbe39d477U, 0xbd7dc18b3d6b27e6U, 0x3dc1007bbe1d256cU,
  0x3db6c2453d77f4b4U, 0x3d9f85263d9f3c3bU, 0x3d1f801b3debadb2U, 0x3d203286bdad03d8U,
  0xbe3003c2bcacabceU, 0xbd776d9e3d33abc6U, 0xbd51ea1cbd788563U, 0xbd917a3abc929d45U,
  0xbdc01e433d40a527U, 0xbd4c8a153d137b75U, 0xbd83d908bd13d3fdU, 0xbe03f9fdbc950806U,
  0xbd84b4483d62fd7cU, 0xbb6e6be7bb6fc68bU, 0xbc36766c3e29184aU, 0x3cac66e5bde6236dU,
  0x3c221e303e03e78fU, 0xbdd2b5d0bc5a9695U, 0x3d18502bbdf16c6fU, 0x3c19bf083ca1e853U,
  0xbced5e6d3dc4af13U, 0x3da7e9c1bd3f288aU, 0x3e0b33333d8ab0a4U, 0xbd14e51d3e293c1dU,
  0x3d5f186ab844db15U, 0x3e07b8c13deeaf41U, 0xbd887999bd852ea1U, 0x3db39124bd9556bcU,
  0xbd04050f3cff6cbcU, 0xbde71b743d74a252U, 0xbb184fc7bc06a87bU, 0x3d7b44f3be2dbbb9U,
  0xbe210efa3d9a1fb7U, 0x3d84e1bfbca3e42fU, 0xbe34fc7cbd96caf9U, 0x3c184234bd0ed6f0U,
  0xbd5d86ef3c7f194cU, 0x3c8d24a6bda1cc65U, 0x3e168ab1be2a6cb9U, 0x3992a1fb3d06b425U,
  0xbd6ebd91be18e39cU, 0x3d04d102ba3493ddU, 0xbd10f71fbc834c12U, 0xbdf2a7ebbd53acc7U,
  0x3ced104a395feb41U, 0x3d6cf06dbc7c5d90U, 0x3b63b0b23bba9438U, 0x3dc4ebbb3b897785U,
  0xbdcb20623ccb47b1U, 0xbb7f18a7bd8130ebU, 0xbd1f03ce3cf59fa6U, 0xbd5b29b1bdf20742U,
  0xbd10e0983ccf85b3U, 0xbd541bcebdecddefU, 0xbd3e469dbc4d60bcU, 0x3d0e262b3c459c57U,
  0xbd215bcf3c6bd4c4U, 0xbd46fb25bd070670U, 0xbd846c8abd9dc31bU, 0xbe844f983d18dfd9U,
  0x3a6c001bbdf71721U, 0xbde76a84be41edd4U, 0xbcdfde20bd31d5bcU, 0xbd89c4e5ba2f9bfaU,
  0xbbe7f20e3d6e3de6U, 0xbccf8dec3ca49abeU, 0xbd91c8bf3da6bb4fU, 0x3d89a05cbde31fbeU,
  0x3d864275bc9211d8U, 0xbd9e0078bd00659cU, 0xbcdf3117bd857d0eU, 0x3c281d993cc2a960U,
  0xbd9c5d063c154ab4U, 0xbccad470bcd9077cU, 0x3c1bf1c13d892405U, 0xbd6d7365bd34298dU,
  0x3e07e7a73d7ca32dU, 0x3cffcb0a3d97ae09U, 0xbd208c723dd8128aU, 0xbdc5a24ebe4290b6U,
  0xbc23b4113e3c1d60U, 0x3dc2fbd43d75e675U, 0xbd806e9ebd270bbaU, 0x3d987d5cbd7fbf04U,
  0x3e1feea2bd0b0c0aU, 0x3da40e03bcd1c1f5U, 0x3e0110f83db7c10fU, 0x3d291ed73dd5ab2dU,
  0x3c5028bdbd82cb35U, 0xbd4d2743bc99486cU, 0xbd666e1b3de6a5f0U, 0x3c23a4bb3ca45fb2U,
  0xbdc93f873d4440b8U, 0x3e122e763dbbf62eU, 0x3d95bccfbdac8100U, 0x3d9e5ffcbd80fbc6U,
  0x3bf322fcbcad13f5U, 0xbdebac1cbbb0bb02U, 0x3cc13e0e3dd5171aU, 0x3d83206ebd8c213eU,
  0x3e24d20cbd79bdbdU, 0x3d49aa7abdd63c22U, 0xbc5596adba9e5cb8U, 0x3d0f03a7bcf5cd63U,
  0x3d110ad1bdc36161U, 0x3c879ff73d4690d8U, 0x3d8ea6ea3d75edecU, 0x3df822533df2c544U,
  0x3da554673d0bd33aU, 0x3db3c965bda350ceU, 0x3d4007f1bd7c783dU, 0xbc7317c6bc59cdbfU,
  0xbe1c434f3e1cbc4cU, 0xbd0aa250be13d4d7U, 0xbd774f8ebcd369f6U, 0xbd68a6f23d8008c9U,
  0xbe101e64bcfee73fU, 0x3d9309943cfe01d1U, 0x3cd6d6cf3cdc38feU, 0x3c8da7ddbd3941d8U,
  0x3db59ef6bcc8e064U, 0xbd1daa2cbe04ddb6U, 0xbaeab922bcde1682U, 0xbd24c4e03cd78441U,
  0xbaf15f8dbd58a249U, 0xbd777d47bd5a6e64U, 0xbd822351bdb305b5U, 0x3ca1f4de3d668868U,
  0x3d5d0fca3c47c4b1U, 0x3d82af333d3edac8U, 0x3d876300bd7de467U, 0xbc37050e3d3eb234U,
  0x3d31815c3dc73737U, 0x3e1ea2663d0c78b4U, 0x3e5082c73c2f2f44U, 0x3cbe7526bd120c8cU,
  0x3dd38a49bdd93717U, 0x3de042443e280334U, 0xbe102caf3c8580b0U, 0x3cea37113dffa2e1U,
  0x3dec4979bd82088fU, 0x3dd3560cbdf4d990U, 0x3c0b1f2d3d34c56dU, 0xbc3022a8bd265fe6U,
  0xbdc1b477bd574cfbU, 0x3dba6b70be129738U, 0xbddbcc05bd115895U, 0x3dc8c374bd067f91U,
  0xbca312a9bdac75e8U, 0xbe13886ebb7cacecU, 0xbdd9a420be001c12U, 0x3d2f191b3d2c1c37U,
  0x3d27d7f1bd58c330U, 0xbd97e854bcfaf945U, 0xbd9bf7983d9f4005U, 0xbd8457d63c00c15eU,
  0x3e0a11703da73e50U, 0x3a9e1b15bd34be80U, 0xbc9ffa1a3cff67a9U, 0x3df25f8bbdb33926U,
  0xbe1600dc3c75e026U, 0xbe127f32bd803ed2U, 0xbdbeeac6bd9a271dU, 0x3d55201a3adc9ca3U,
  0xbda83384bd186e2fU, 0xbbe026b3bd33e02cU, 0xbc43172e3da78b29U, 0x3d338b7ebdeda5fbU,
  0xbc03715a3c2ca5b8U, 0xbe08a3b0bdd24577U, 0xbc8bf7f93dd45feaU, 0xbd2bf191bdf3185aU,
  0x3c60d532bceaf3c9U, 0x3d7483773d329723U, 0x3d051c523d3b0f1fU, 0x3d85e619bcb4803aU,
  0xbd9971cabd103d36U, 0xbd96e6163da5710eU, 0x3c26fe0d3cbad74fU, 0xbd3a39d7bcf1eb14U,
  0x3d003c31bbc02255U, 0x3e080699bd5d8c80U, 0x3c2157263d9a5057U, 0xbd80d71f3ddf4d88U,
  0xbc9b182abdae0717U, 0x3dc57b2d3d2634d2U, 0x3d3790edbc62bdbaU, 0xbc8157a5bbbc62e2U,
  0x3bc653133dcaf7c5U, 0x3d9d7592bd5ad213U, 0xbd1b0165bc8a5029U, 0x3d8595953d70974eU,
  0xbe12971c3d152703U, 0xbcdb5943bdd324abU, 0xbdfef0873bd1a76aU, 0xbd8b65f63cbfbb43U,
  0xbda0b1fcbd87b32cU, 0xbd9df811bd7823c9U, 0xbd6c7361bdb1f339U, 0x3e0077e4bd684de4U,
  0x3bef849cbdfa6bb3U, 0x3ba6e1b93e1ccaafU, 0xbd89400bbbb0ed44U, 0xbb8fafe6bc8c8646U,
  0xbd5ca76ebc6bd465U, 0xbd778d2e3d04f2e3U, 0x3d873459bd3e9d5dU, 0x3dbf605fbdbf49edU,
  0xbd8bca5d3d2664a6U, 0x3d0cfa83bd98be7eU, 0xbd36383dbc3a1cd6U, 0x3d540258bc82d996U,
  0x3db09f843ddca2b6U, 0x3c3b78d3bd907672U, 0xbda6c31fbdd745abU, 0xbd2c464dbb85f947U,
  0x3ccbe3b93da01b97U, 0xbcf9ab20bda70837U, 0xbdcfe9263e13c84bU, 0xbd6540ca3d3ff561U,
  0xbcea747e3ddead1aU, 0x3c89ab28bc7b239dU, 0x3d090a5f3d80f1f7U, 0xbd5128513d14c04fU,
  0xbd858926be3f8048U, 0x3b05ff36bd0e1d1eU, 0xbe1aa977bdcbf706U, 0xbd2f3de93d390a86U,
  0xbd6198fa3beaecb0U, 0xbda2807a3dce458bU, 0xbe1bf21cbdac1c12U, 0xbd6d11b83d940cf2U,
  0xbdac7c02bd9a326fU, 0xbe18409bbdaf98c9U, 0x3d086b32bcb4aa84U, 0xbe65dda9bdc2a2c4U,
  0xbdb25b50bca0d7b6U, 0xbd512153bdf3d4afU, 0xbbdd116c3c9a535aU, 0xbdfcaff6bd95ce55U,
  0x3db112c8bd805280U, 0x3db8ca4cbd1b1975U, 0x3dd0fe303e008f61U, 0xbd4284f53d7f7276U,
  0xbd0204a7bc60e3eeU, 0xbdb437ea3d96da1eU, 0xbe00dbccbd3fb081U, 0xbdc574d33cbb1dcfU,
  0x3d9bfb653db0766cU, 0xbcec37f6bd96dd21U, 0xbd13272cbd4ee49bU, 0x3d823e6dbdc01f5eU,
  0xbca5c5ebbc83da58U, 0xbd348a403db26cacU, 0x3d1297f53d179018U, 0xbd53ec51bd7a53aaU,
  0xbd1730093e1caae9U, 0xbda803aabd418659U, 0xbdb3113dbe0acf85U, 0xbdb9d1bab98a12d8U,
  0xbc9e50af3dd04a52U, 0x3e028440bd8b0e03U, 0x3dbc9e18bd6d6b67U, 0x3b5594833d29d543U,
  0xbd878bbebc8b781dU, 0x3c130f063e35510cU, 0xbe0fffe23d179204U, 0x3c166be23da28c8bU,
  0xbd2fdb52bdf8426dU, 0xbdc98cbbbe04fe4eU, 0x3d5554d1bdb92572U, 0xbcafea28bd7766aeU,
  0x3d64d85c3d645608U, 0xbd961b46bcc2add5U, 0xbe3d77f9bdc04ae9U, 0xbd5924f53b26eb60U,
  0x3d202ba2bda3bb96U, 0xbdd350093d3f40cdU, 0xbdecb52b3c98962eU, 0x3babebfabdabb813U,
  0xbce05dadbcf6ec7cU, 0xbda629bfbe051194U, 0x3c05954d3d560a7bU, 0xbdbc4b0cbddf0481U,
  0x3d8d6a79bde371adU, 0x3d0aaf9abcc79b99U, 0x3d92f7f03d43fa96U, 0xbd973abb3cf6a388U,
  0xbd6395c8b9d493c1U, 0xbdc12ecbbd4dd1e6U, 0xbde33f47be2d1c5fU, 0x3d3ddbb83dcb004eU,
  0x3da47505bd67e2e2U, 0x3dd1ae15bd7a07c2U, 0x3d59dc4a3d3e35fcU, 0xbdc21c443de48a94U,
  0x3d81ce44bd626a83U, 0xbdfee377bdbe6901U, 0x3c2bea063d65167bU, 0xbd96ba5e3aed0d92U,
  0x3d99fa3bbd944eceU, 0xbd9e1037bdf21d91U, 0xbcca95d1bde6e0d3U, 0x3d1000e0bd4d8694U,
  0xbc0dcc49bcdfc630U, 0x3c92ec82bd553211U, 0xbc275f24bdaa80b7U, 0x3dc71a18bba4be74U,
  0x3d7872613d0908bdU, 0x3da4af0a3d11a1ddU, 0x3b2ec50abdcc1feeU, 0x3db5d443bc893b86U,
  0x3de416d23d70f5ffU, 0x3db1da793d50b3eeU, 0xbcae78c83c9cc796U, 0x3cf12e883b995f5cU,
  0xbdec0114bc0de07cU, 0x3dc07122bdd8a71cU, 0xbce32962bc648d20U, 0xbd316feebdd1404fU,
  0xbd80e20bbaeccc2cU, 0xbd84ff533da0bc85U, 0xbdd324a4bdeda3e6U, 0xbca87016ba86c72cU,
  0x3e102436bd09ab7dU, 0xba9cf6c73bb36c0cU, 0xbc8e023dbc3a56f0U, 0x3dbe395b3db916d4U,
  0xbd1c28bebdac352eU, 0x3d64e661bcd1368aU, 0x3da1071e3df5039cU, 0xbe1d35edbdb82e6aU,
  0xbd257144bdab1189U, 0xbcbd61b93c25fa35U, 0xbd3a214c3a10d2adU, 0x3d849e7abdb8ba16U,
  0xbe1b7c3b3c7b62b3U, 0xbdb8ace2bd5eda2aU, 0xbe12afe2be1f4cd7U, 0xbd3617513da0fd81U,
  0x3e0625883d19ed8dU, 0xbc3435a6bd8bae74U, 0x3e1c816dbe23768dU, 0xbd3acb2abdaaa5a7U,
  0xbc3b189abdff5637U, 0xbdada5c33da5be65U, 0x3b3fbc7c3db3b384U, 0xbe68fbb8bd5b4cd5U,
  0x3c48c151bde73805U, 0xbd0c0b17bd0e51d3U, 0x3cba62013b16213fU, 0xbd9fe0e1bd92df8bU,
  0x3de1e2273c641310U, 0x3e0e41e03d65b91dU, 0x3dc3b2163d2bd31eU, 0xbd94c2e43dd4a550U,
  0x3e2026d1bd0c0241U, 0x3cca03b1bc912476U, 0xbdee55ee3d75abe5U, 0x3d4dd490bd9bfbe2U,
  0x3de24e943e146a2fU, 0x3cee87d3bd30b1c5U, 0xbb31081c3d867224U, 0x3dfa9a31bda7eaf2U,
  0xbd4ec4ec3c47806fU, 0x3d49a92f3e10492dU, 0xbd59a2c5bcd2030aU, 0xbcccd4f83d57ed4aU,
  0x3d3dfccdbd3874ceU, 0x3c57ee18bd757cd1U, 0xbd977bf8bc959d19U, 0x3caa2841bdb9711aU,
  0xbd3800a33d4482f0U, 0x3cea98ea3c8c106eU, 0x3e039dd3bc12c4f4U, 0x3b18ee76bd01d204U,
  0x3def4880bcc79a5aU, 0x3d1095ae3da30f81U, 0xbcdb68e03db9f629U, 0xbab9df1f3ca40c5bU,
  0x3cff5842be0b9da5U, 0xbdf1cd7abe29ace6U, 0x3dcfc63e3daa5b8aU, 0xbd5a025fbdf59e1dU,
  0x3d64fa9d3d3417b5U, 0xbda8b3633dd5067aU, 0xba7576b2be38b3faU, 0xbd1c7dff3dbe06daU,
  0x3c59bb1e3d922372U, 0x3d9ff428bceb8b18U, 0x3bf7164c3d3abe19U, 0x3b820148badfa012U,
  0x3c4c99353e0ffc5aU, 0xbd923645bda15af7U, 0xbdce41acbc127af5U, 0xbde3eced3db5c6d5U,
  0x3d5106c53bc2120dU, 0xbe1298d1bcd6d2edU, 0x3de27a753d810227U, 0x3c80d081be848201U,
  0x3d16cf9fbdc18b8eU, 0x3dc6faf13e2ec735U, 0x3e0f2b9e3d825911U, 0x3d74271cbe331d3cU,
  0xbd3af72ebd9ec8baU, 0xbd534d0abd8318b3U, 0x3c990ba4bde87e36U, 0xbdcdc957be0a159dU,
  0x3dcc05f13e3f2832U, 0xbcd402e4bc555d26U, 0xbb446f69bd88f579U, 0x3d473c763dbe4df0U,
  0xbc955d76be017691U, 0xbe03fcc73db6b9c0U, 0x3c7e49643df67599U, 0xbe19b2f3be1c6eebU,
  0xbd49039ebd33d103U, 0x3c496a963d86da6bU, 0x3d29f736bd2743ddU, 0xbd30f9d3bda529c4U,
  0xbd0778463bf60e56U, 0xbcc833413de5102dU, 0x3d359d413ca2ba7eU, 0x3cce78e6bce1d11aU,
  0x3d88e50a3cd66e2fU, 0x3dbb738dbd8355a2U, 0xbcb26f34bcfb5d2cU, 0x3d600c013d82d91eU,
  0xbd548053be075785U, 0xbdd5f866bd7f4b40U, 0x3c05fa533e19111fU, 0x3da50c1f3cdc60f1U,
  0x3d498cdf3d6112eeU, 0xbd8775a83d8cbeb8U, 0x3cd2a0f9be28a396U, 0xbdc7a06f3d07c086U,
  0x3d420a803b9f4159U, 0x3e0effeebe0aebccU, 0x3e1f5a03bd81323cU, 0xbafc3a103d8b8284U,
  0xbdb0c9443cd5e6d4U, 0xbe034d673d97df65U, 0x3d350e0fbdff6a0dU, 0x3c4e22343e63d05fU,
  0x3cf3de56be2468c1U, 0xbe78d3aabaca7388U, 0x3d8d5f7dbdd98a57U, 0x3da47191be796962U,
  0x3b57fe92be2d004cU, 0x3d8827ac3dd784efU, 0x3dadeaae3d5c5a2fU, 0xbd2001cabdb55c8aU,
  0x3c883e8fbe23a6bcU, 0xbd097d4cbdcbbc08U, 0xbd286ff9bdd82798U, 0xbe00279ebcac901aU,
  0x3db042a93d85b29aU, 0x3cb019b7bd94de75U, 0x3d1c8a78bc366591U, 0x3dae195c3e1f81d5U,
  0xbdb5d5aebe7fd82bU, 0x3c21daeb3e1e7692U, 0x3d80e2953d849c9aU, 0x3c00ff00be465e86U,
  0xbd84a16b3ce4aa32U, 0x3d25b02a3d6873f1U, 0x3c9d57693d196aa9U, 0xbdf840b5bd36be75U,
  0xbd24e498bcff8972U, 0xbcb1d3c43ca78a90U, 0xbbe20ce8bc1513dfU, 0xbdff70273d8fcb52U,
  0x3de70e8cbd1a90c4U, 0x3cf1b5d33c3bb97fU, 0xbded9832bd57f656U, 0x3dc614d73e0c2c61U,
  0x3d5e7786bdb225aeU, 0xbe13ffddbd64337eU, 0xbd5e4297bc91c5c5U, 0xbcb7b4b3bd2ed786U,
  0x3d343cc63ce60e0bU, 0x3c61b3b6bdb3139eU, 0x3d2ddbb2bdd2089aU, 0xb9bbe4de3ce8cc9eU,
  0x3c748800bc223f14U, 0x3e351a30bd0b9c1aU, 0x3e0408e93d0a0a73U, 0x3d9de4edbca5c4edU,
  0xba9d67ebbd7f6a45U, 0xbd58d5593e2c4aa8U, 0xbd213353bd2c31d5U, 0xbe1dfffb3e2eb235U,
  0xbd587801bccb7a09U, 0x3b4e1557be1aa16fU, 0xbc0273d9bd876a44U, 0x3cab704dbe70a445U,
  0x3df14e68bda335a3U, 0xbce4d8543e427a35U, 0x3d487d7a3d949d8eU, 0x3c4d8234be2dd49cU,
  0xbd0bcc79be32048eU, 0xbe72e018bc98fd81U, 0xbe116fe0be18affaU, 0xbe3dde34bdface94U,
  0xbd92cc923da5eb33U, 0xbe370e3e3c3693acU, 0x3de88d8fbd0383e3U, 0x3d7ccda43d954053U,
  0x3c883857be17eed4U, 0xbae0ae4a3e23640dU, 0x3d86a55ebd8e32adU, 0x3da9c944bdbe6c7bU,
  0x3dea3690bdc8643bU, 0xbd772e2c3dfb5a46U, 0xbda41940bc13b285U, 0xbe2a72853c56124bU,
  0x3e4528d23b8cf6a7U, 0xbd9855a1bc93b506U, 0xbd69897d3e023b9cU, 0x3a4a21f6bc47f3f6U,
  0xbd8d21163b80f6deU, 0xbda93853bd645ba5U, 0xbce04e7f3d59df43U, 0x3df777d93cd10eabU,
  0x3b46d71d3d935b3fU, 0x3e1381423d4bef5eU, 0xbd830d87bd02b57aU, 0xbe3a0bba3c18b337U,
  0x3d411752be01e774U, 0x3c86667bbd3381a2U, 0xbdd09a723ce7505dU, 0xbd56e45b3d80b17eU,
  0x3d95c4cc3bbe90e8U, 0x3d5931ef3dd4142fU, 0xbe1ff1643e56ebd8U, 0xbd9cf49dbb173a06U,
  0xbdfd4f81bdb590b4U, 0x3c972c5dbd99eaf6U, 0x3d4d69b3bddd5bb4U, 0x3d467a893ccbdc9fU,
  0x3d4ee2d3bb3408fbU, 0xbc1462483d12590bU, 0x3d2fc9b43d0c6c57U, 0xbd4a0fa4bd2b3f4cU,
  0xbdc081d3bbbe30d8U, 0xbd4072bcbdaf29fdU, 0x3d1c3475bdafb1faU, 0xbd0a85dabe0aeba3U,
  0x3d8c94df3b8e5eb1U, 0xbdb4164fbdb1d685U, 0xbd02b4233de22bb0U, 0xbd2b46323d6e7999U,
  0x3cc60903bd99bc92U, 0x3d94b200bd188a73U, 0x3d296750bd22af5fU, 0xbc5b168ebc553000U,
  0xbc593f0dbba6ff39U, 0x3d374e813d122972U, 0x3d3c87d9bd26fb98U, 0x3d2dc4833c92a609U,
  0x3d9c8cf1bb26ef23U, 0x3d4126b53dd200adU, 0xbc6a2918bd86c0a0U, 0xbbe18432bdb838e6U,
  0x3a8b8766bde37d11U, 0xbd8d924cba7e694fU, 0xbd60f6e53d125052U, 0x3de21617bdc02e64U,
  0x3d94f9dc3dd06f25U, 0xbdd33c993de9a8c3U, 0xbdb77e8c3d9b011aU, 0x3e0409423c8f5d73U,
  0x3db2f6af3dd6fff9U, 0x3dcdbc3abd0ee06cU, 0x3d5755debd0d17f1U, 0xbdd753833d34d8f3U,
  0xbe07155fbda25136U, 0x3dd92d6e3ce4f10cU, 0xbd2aef8d3dfc774cU, 0xba8217f9bb2aa8acU,
  0x3d8cb5793dc952e8U, 0x3d52becfbb23d6c5U, 0x3c8197bf3e391b55U, 0xbcc9c361bdcff410U,
  0xbd78314abcceb1c5U, 0x3d487008bcc66e8bU, 0xbe1888cc3d86a0b4U, 0x3d95d082bda32319U,
  0x3dad1edd3d9b82b7U, 0x3e04d3673bdef933U, 0xbd1af125bc965d70U, 0xbe510b333d2cbafeU,
  0xbdc5cf58bd82b362U, 0x3c229a783e00361fU, 0x3cd8bb10bd84ce0cU, 0x3d0f61e93cac5aedU,
  0xbde0fb103d925c64U, 0xbd9b873ebd93d7a4U, 0x3def8f493d363854U, 0xbe091ccabdc0fed8U,
  0x3d0f85463c00fef5U, 0xbb36921c3da67296U, 0xbd43e2ea3d9a0901U, 0x3e0069cbbb84d791U,
  0xbc7876dcbdb6b1b9U, 0xbc2082f13a537847U, 0xbdc607163d722627U, 0x3b0938e2b92bc2f0U,
  0x3d961c40bc653ebbU, 0x3c5e3d70bd4be81eU, 0x3d0f1d7b3db36a51U, 0xbcbd2a71bd47ea84U,
  0x3de60a8e3c081889U, 0xbd9e89893caade91U, 0xbc5039f73e0e7fccU, 0x3daff0c73da74d17U,
  0x3d11dc483dd0d9c9U, 0xbdffd48b3dee31deU, 0xbc894b413d493fb8U, 0xbbc497b13dce00e8U,
  0xbd02cd4c3d4d61a0U, 0x3e0155b63c42688bU, 0x3d55abd03e12d004U, 0xbe868df63dbfbc25U,
  0xbd77d3dabd242320U, 0x3d9ed8dd3d457cdcU, 0xbd4de0df3df03f37U, 0xbc4fc03bbbe01586U,
  0xbd8c83a73dc6a9c1U, 0xbcd18239bdcc6d79U, 0xbdf659a33dad1649U, 0xbdc1dc37be25de3bU,
  0x3d19d7683d1be26cU, 0xbdb55d053d0d0dbdU, 0x3d80b2af3d34ee03U, 0x3d414d59bd3fc136U,
  0xbcf925873b28e497U, 0xbc86dc8cbdfb870cU, 0xbd0895e33cf9e259U, 0xbe620f63bc134bb4U,
  0xbdff018ebc8844b4U, 0xbd8f123abcf0d669U, 0xbdc11ad23d3c671bU, 0xbde2aaf8bb22b7e2U,
  0xbe076d7fbce42641U, 0xbd7a56c6bd30e3b9U, 0xbc93db0d3e079ed5U, 0x3de7c38dbdb2785eU,
  0x3d34f07a3be09768U, 0x3c77e9513c7c5f4cU, 0xbc529ccebc23a471U, 0x3a2c6c2dbda2a37cU,
  0x3decf6c4bd10e2e0U, 0xbd92dc48bdefb212U, 0x3c8941fdbddfac98U, 0xbd749929b96c3c25U,
  0xbe10b1643da82696U, 0xbe0cc936bde662e1U, 0x3dc36649bdb90618U, 0x3da9c493bdc1a777U,
  0xbde82e9abddf55d7U, 0xbd90d4dc3cc4904fU, 0xbd98969dbd866752U, 0x3d3149853cffaed4U,
  0xbdd7ad96bcb62b0dU, 0xbce596fdbcae3678U, 0xbd5f797c3e8b26c7U, 0xbc808031bc222a78U,
  0x3d8b2bcdbdd8ab36U, 0x3b99d85ebd29d535U, 0x3d4aea61be178647U, 0x3dd453b9bc284af4U,
  0xbdfcf5733c2f2612U, 0xbdb4bad3ba96a1ffU, 0x3dd864b4be20b25bU, 0x3d9d40debdbe1d53U,
  0x3d271d6fbd141d39U, 0xbd44e5b73d00a358U, 0xbd1c5f3d3cc93b74U, 0x3e0639903b55dbdeU,
  0xbbae04813cf8e480U, 0xbdb074cebac7dc8bU, 0xbd464fe83e77ecaeU, 0xbd3de21c3b88e178U,
  0x3d9444523e5c0a68U, 0xbd6b09ab3d4c4bc4U, 0x3b1c0c00bd943479U, 0x3d84fede3d0768ebU,
  0xbdf82a683c5d5f34U, 0xbdfc2143bd329c79U, 0xbb8c470e3cc4d47dU, 0x3d28edebbd908ff0U,
  0x3bf918953d1d94e4U, 0x3d371c3e3c1e8ea2U, 0xbc55b38c3d0d67c9U, 0xbd4ed28fbd70544fU,
  0xbd47078c3d65bb21U, 0xbd40d135bd9ded17U, 0xbccef5663d0666d4U, 0xbd4701a4bdab0850U,
  0xbaaf80b83de08323U, 0xbcb094f5bd497618U, 0xbdcf01bbbd30444dU, 0x3d8a67b23e8f13b5U,
  0xbdd2b2013d5d2aa9U, 0xbc1e7988bcee81beU, 0x3e31a681bdcf251aU, 0x3d191fabbdae0f46U,
  0xbdcb4399be2fe413U, 0xbd3e01f13e05a6f6U, 0xbd28e8d1be7b2c11U, 0xbd322a543d5208cdU,
  0x3d7011d9bcebf525U, 0x3d92e728bd417e04U, 0xbd765c0e3e52071eU, 0xbd86f6cf3db69870U,
  0xbd29a0a1bda9887eU, 0xbd04ed4c3d5e0895U, 0xbd5ebfcfbe1e0425U, 0x3d91b474bde89bceU,
  0xbda194b3bcad6053U, 0xbcb2fb833dcd9c04U, 0x3dc80005be065cfdU, 0x3d84e222bde74af4U,
  0xbd869422bcca68daU, 0xbd1002d83d34a732U, 0x3d9e74c8bdbf038fU, 0x3dea105abd94af52U,
  0xbd8ed8c13d288016U, 0xbd849509bd20306dU, 0xbd0a10803e4f425fU, 0xbd9b39d5bd53fbc9U,
  0x3d12a7cf3d7a1a1cU, 0x3d7689423dc02164U, 0xbda5802cbcbb7a34U, 0x3d5955acbdd0ffb1U,
  0xbdc2065abbf852a9U, 0xbcb3c634bc839a84U, 0x3d9cbadfbe010e4dU, 0xbbbbce7cbc2cd832U,
  0x3cbd2e73bd12fa01U, 0xbc11a7003cddc254U, 0xbcce7cda3c3e646eU, 0x3d8f7c283b793c63U,
  0xbc74776e3d8b8759U, 0xbdd167a53d3f0fe1U, 0xbd305b773dae4e0cU, 0x3bcd5ba73d0f6cafU,
  0x3df2293e3e27582cU, 0xbd426cb73d4d58f1U, 0xbda86e48bdb29390U, 0xba85eaf13e268ee7U,
  0xbd876aa53a3930b5U, 0xbb86983dbd76cf57U, 0x3ceb82fc3d0b2744U, 0x3d87de58be0fc6b5U,
  0xbdf0320abdf4c3f9U, 0xbd28529e3de86157U, 0xbd870626bdf62e72U, 0xbd5313923dd83c68U,
  0xbc692ee3bcd601efU, 0x3b541d5bbd3840a7U, 0xbde5cc473da74299U, 0xbced2882bd50459dU,
  0x3c9f49dbbe1cb039U, 0xbcf9546cbc5235baU, 0xbdfa5fbfbd6fde80U, 0x3e0d9beebd6ec279U,
  0xbe2405003d9e90b6U, 0xbd48405c3daee2acU, 0x3e4941c5bdf422a2U, 0xbd7cf227bd001222U,
  0x3d59c306be41b901U, 0xbd48f3f93d949f88U, 0xbc5d84cfbd1bf971U, 0x3b35feae3d357d60U,
  0xbe00ad1b3cf38922U, 0x3dc00bd3bd56641bU, 0xbd54b33e3e35dc12U, 0xbe246552bde4fca0U,
  0x3e120f0f3cb39b8aU, 0xbd5fe9f13d0cea42U, 0xbd876349bd21535bU, 0x3d29059fbcf48e31U,
  0xbddc4e26be0dff7bU, 0xbdc9efc3bdaf4858U, 0x3db2479b3d13974aU, 0x3d582758bba85754U,
  0x3d35ecf1bda0f9afU, 0xbd4f58f43d81c6a1U, 0x3da0c3f9bd5b1777U, 0x3d892fcfbcc39947U,
  0xbdba97a4bd2d65a4U, 0x3d2eb5fd3d59979cU, 0x3be2f9293e173c02U, 0xbd4017de3a0c4415U,
  0x3dc7705b3e0f2196U, 0xbd3afcb83d7c3d35U, 0x3d4bf6763caa545bU, 0xbd47662d3cbc2efdU,
  0xbc784cdd3e1d0f54U, 0x3bb52da9bdbd7891U, 0xbdab1b36bdf7e8e1U, 0xbbe24689bce73141U,
  0xbd71a3f23d4ee5a7U, 0x3de81c74be856f4bU, 0x3d9c99043b79470bU, 0x3dc62008bc8d511dU,
  0x3c458ec6bd036db4U, 0xbc92f75f3c566f3cU, 0x3989783fbdf8c3afU, 0xbe0f42ac3dbf535bU,
  0xbdb257fd3bdea2c7U, 0xbcafb90dbd9c1586U, 0x3d18829b3d9dc4e2U, 0xbad3f806bd664cadU,
  0xbcb58709bd254af8U, 0x3dc5db8fbcabb125U, 0x3e080fb23c3be0d1U, 0x3d448e2fbca3048eU,
  0xbd48c3953df3f091U, 0xbc95cc2bbde204efU, 0xbd7b28ecbc185e8dU, 0x3db04782bd41a45dU,
  0xbde86db03e59926fU, 0x3c6b0614bd0bd7b4U, 0xbe0aa90ebd8f1b4cU, 0x3cd250c8be2b0af2U,
  0xbded58cf3da92014U, 0xbdbc9e63bba033bcU, 0x3d6671b73caa2a42U, 0xbdb94c15be4ee011U,
  0xbd4c8fbdbbe945a3U, 0xbdb1fa013e1a31aeU, 0xbd975ada3e07e98aU, 0x3c92f2053d62a53fU,
  0x3cadec443df4136cU, 0xbde0ee5bbdbd867cU, 0x3d1869dbbd196b73U, 0xbe129703bb529c93U,
  0xbda045023dbd838eU, 0x3e401ed2bd4ca859U, 0x3dcb9719bdc66434U, 0xbdbec50a3d82c249U,
  0xbdb43a503c4e1550U, 0xbd6dff053c2e0fb7U, 0xbd26d4c3bbec953aU, 0x3d9b0feabd812d94U,
  0xbd65f33dbd114f1bU, 0xbd24eca3be44e328U, 0xbe5666cfbdf12582U, 0xbc9808b13ce2cb57U,
  0xbdcd29a33d8f49f2U, 0xbcc14761be80fe3fU, 0x3dcf37d2be6330d8U, 0x3d425343bca003fdU,
  0xbe039ebbbdd0de62U, 0xbe2aedc83d0f519dU, 0xbd8cd22dbe1821d8U, 0xbe5f10c53dcc3a5eU,
  0x3b05aeb6bb936520U, 0xbb791233be422b41U, 0x3d8b9d2dbd9d4aeeU, 0xbd801e6ebe0029f1U,
  0x3dbbfe0fbdc924fcU, 0x3d3c06d03dbc3673U, 0x3cc16243bd1fe625U, 0x3de7bf5bbad6cc17U,
  0xbd043d18bdf8d0bcU, 0xbe33309bbe49dab4U, 0xb9a5eeb5bdb038d6U, 0x3b1bd7bd3b5a4c91U,
  0xbde4d0393e4ef792U, 0xbd250d11be83ea86U, 0xbd520699be042a52U, 0xbde38109be2e6217U,
  0xbd1fa19e3c118d53U, 0xbdd2ac4f3d31346aU, 0x3da9265fbd2a8cb4U, 0xbdfcc6a1be284a26U,
  0xbe0a79713db4ceeaU, 0xbd6e31493df69569U, 0x3c87dc203dc06c27U, 0x3e1017c0bc986f9dU,
  0x3c93c256bd3bf67cU, 0xbcd91695be34fe35U, 0x3d8f40353d750308U, 0xbdcc0462bde20020U,
  0xbd915157be0d6e18U, 0xbd384ca1bd538db2U, 0x3cb5638dbd58028bU, 0x3c535c1d3c5b8a0aU,
  0xbdac4d54bd46a40eU, 0x3d5e15cf3d5058b9U, 0xbc7d34f83d33d66dU, 0xbd9b5177bbf0d674U,
  0xbd5050173ba744bbU, 0xbdc2c47abd10fbc6U, 0xbde2b85ebcc2b6b8U, 0x3d302d263d47bfefU,
  0x3e09e0e0bd8f41abU, 0x3df1e530be3a60a1U, 0x3e14f21abdc06970U, 0x3d80a78dbd9e287cU,
  0xbdec720fbdac1656U, 0x3e051125b816e10aU, 0x3d284f25bd2f66f9U, 0xbeb2eb6f3d01bce9U,
  0xbc121b80bdf6b130U, 0xbe02c1bfbe337a87U, 0x3d967c123c8a7e42U, 0x3c879f523d0a9fa1U,
  0x3de27a98be091b9eU, 0xbdaae2f83d5e466fU, 0xbc09f9583d354565U, 0xbd1320bb3c243e2bU,
  0x3d31258ebdd95c68U, 0xbe2719b1be370e9fU, 0xbc50de4ebe077f9aU, 0xbd836a14bda2ea68U,
  0x3ccf48f53dbe87ddU, 0x3dab8346be681529U, 0x3d1f71493d8dc277U, 0xbd71f4d8be202c5fU,
  0xbd87a1d9bda6da11U, 0xbdb5b2023e015337U, 0xbdab1ce2bd8202b7U, 0xbd8adc19bd3d409dU,
  0x3d487bd4bdf30f51U, 0xbdcc7edabdca4f02U, 0x3d81be65bc9697feU, 0x3dcc4555bc84c84bU,
  0x3d56e0be3dcbc2caU, 0xbd6c25bdbe09addaU, 0x3c5a90663ca26c91U, 0xbd8faf083d4ef8b1U,
  0xbda8580fbdef5f5cU, 0x3a9164063db70c89U, 0x3d8dfde33d3e3580U, 0xbe27a34ebc83b2a9U,
  0xbaf041cbbe0a95e7U, 0x3d2635a73c61d1c8U, 0xbd7e46aebc0911cfU, 0x3c94a5c4bda317c1U,
  0xbc65070a3de9a4e2U, 0x3c71d38ebcbc9317U, 0x3d53980dbdf35027U, 0x3d9b2e7d3d48f975U,
  0x3c8a81d0be12ff98U, 0x3d7eca963d8d7b10U, 0x3cedf8debc2b1371U, 0xbbb2aec83c5061b4U,
  0xbd4ad8babd128266U, 0x3d8cec42bcb307deU, 0x3d88e0803e01b27dU, 0x3cba24183df051c0U,
  0x3d8e50fdbcdc3bfbU, 0xbd5d6314bc27bc0bU, 0x3d2d7de4bcacf9ebU, 0x3d7765ad3d25ab8eU,
  0x3cbcf38c3d67a2d2U, 0x3d177088bd45277fU, 0x3dfd7bda3c27b36bU, 0x3bb2538b3d8d822aU,
  0x3bcdd510be07ec9cU, 0x3c96eadf3dfed2deU, 0xbce37acebdccfb2fU, 0xbd8037b83d2722d5U,
  0xbdd121f73d1110dfU, 0x3dc261513cc866f0U, 0xbd78bcadbdec4257U, 0x3e110281bcc9b95bU,
  0xbc28fa7b3cdda809U, 0xbb67e703bd2ea3e6U, 0x3d197ac33dca0480U, 0x3e23668d3b98fbb0U,
  0x3c83e9a53c9539e6U, 0xbd8753ae3d726156U, 0xbe0cc6bebccb3629U, 0x3d230febbd2eb654U,
  0x3bb38c82bcd017cfU, 0xbdf8129fbe33aaefU, 0xbe0757e33d8dff18U, 0xbd6ca0bcbcecd68fU,
  0xbd7a1958bd4737c0U, 0xbcb03ebcbd8cf70fU, 0x3bd3ae7e3ca35520U, 0x3cadde9fba394890U,
  0xbd801e9fbbf9ecc1U, 0x3de15b07be0558a2U, 0x3d5199dabb53fcb6U, 0x3cf840bb3df25e1eU,
  0xbda0b828bcdbccc5U, 0xbcaadba8bcf56f5cU, 0x3cb14367bdba2d12U, 0x3d5c1a023c9c0c28U,
  0x3cdef597be323cfaU, 0xbdcdcefdbd326198U, 0x3bebff65be325d7bU, 0xbcb80ab83d68c675U,
  0xbc11f2d5bd96ecabU, 0x3c114d90bc837efcU, 0xbd97765a3cbe2c89U, 0xbdd2362a3cf6f3f9U,
  0x3bce8f38bdf0f339U, 0xbd82a2c4bd859d49U, 0xbc8dbd21bc92860fU, 0x3e1cbf493d833741U,
  0x3d1eadf13bbd6858U, 0xbdcdc500ba37ee9dU, 0xb9b2da6ebe0b3cf7U, 0x3d90cf89bd8a1f6aU,
  0x3d18a631bd9df9d2U, 0xbbdfb1903db4319eU, 0x3ce75681bda5383cU, 0x3dce1a5c3e222c85U,
  0xbcd85c35bda661eeU, 0x3d2d9b843dce0f61U, 0x3d45860b3d79f3b2U, 0x3c9f06613e0ff86aU,
  0xbde94facbe0181a0U, 0xbc027079bd3c1c29U, 0x3d9953dd399e8619U, 0x3d4f87713dbddc21U,
  0x3d31bc8a3b37fe37U, 0x3d03f939bd2d421bU, 0xbc3c61e1bdb4b94eU, 0xba81bda5bd03df82U,
  0x3d3ca8a0bdb35b37U, 0xbcc9b03dbd83e7e4U, 0xbdfe1542bdc76809U, 0x3dc9db57bce85220U,
  0xbd7d651bbdd4a52eU, 0xbc738f55bc52eec2U, 0xbcfd3a72bd91f7c5U, 0xbdaffd27bd3f3933U,
  0xbd230b67bd566ab2U, 0xbccc38c4bd91b9b6U, 0xbc08b1b63d89b871U, 0xbbdc2c153bbd09baU,
  0xbe1d53fcbd7dfd46U, 0xbd93a367be0e93a6U, 0x3d0da242bcdd3575U, 0x3c2bf9c93c3be915U,
  0xbdc157fc3cf5ef28U, 0x3d5650033df77591U, 0xbab27db9bda9de76U, 0xbcf751523d9973ecU,
  0xbcceec89bca0ed2bU, 0x3e323c093c162dcfU, 0x3c86f48abd704b1bU, 0x3d0bf79f3c1d2263U,
  0x3d2b55b7bdb74f3eU, 0xbdc1098c3d841f88U, 0x3d8f386e3ccefa1cU, 0x3dc09240bc16cdaaU,
  0xbcf77f903db7fa76U, 0x3d6a38f0bd415dc3U, 0x3cae7d493bddeb1dU, 0x3cadfd1dbd33b3c5U,
  0xbdef90be3d33d7c5U, 0xbdf54a493dc7e5d0U, 0x3d5af717bdaaaa34U, 0xbd674d433e177273U,
  0xbdc07f8c3e181517U, 0x3d8bc4e03dbb0929U, 0xbda97f2ebd1931adU, 0xbb03ed67bd311830U,
  0xbc3486f8bdf9b560U, 0xbdac09533ccc376aU, 0xbb96c946bd45f6dcU, 0x3d631aa2bd759426U,
  0xbe30f8f13d420b46U, 0xbd06b309be15e62aU, 0x3d1a5e053cb59dd4U, 0x3daf0aa1bdb48e1aU,
  0x3c43bca3bd921220U, 0x3d05cd0fbe12523eU, 0xbd3a5762bc4f2333U, 0xbde11cc8bd514840U,
  0xbdf98057bce4792dU, 0xbc31c32bbd8502ebU, 0xbbe86593be0a7ffcU, 0xbdd4adbdbd910ff6U,
  0xbd58c663bdaaccebU, 0xbd98b3983c3985acU, 0xbca156c8bd93394bU, 0x3dbb64673d95a927U,
  0x3dd2fc253d094488U, 0xbddfacb13e2ae374U, 0x3e42ddc5bc5ab39bU, 0xbd135272baa5660eU,
  0x3dc239b13d0aff13U, 0x3c917a1a3ca69831U, 0x3def11edbd701b3dU, 0x3db33ddbbd6093f6U,
  0x3e6383ac3ddd71d4U, 0x3cdcaba43baeddf4U, 0x3d8b23e13e2077b9U, 0xbd037f7e3d22c284U,
  0xbb57f022bd909fc7U, 0xbd8446e33e66f0c9U, 0x3d837443bd9cc5ecU, 0xbe0fd2d5bd48940dU,
  0xbe06e58a3d88d23eU, 0xbd8754a8bd9dfc0fU, 0x3c741bc83ce6ab9cU, 0x3d0d6c62bd87e851U,
  0x3d2e82983d4f5780U, 0xbe9b83133b564a54U, 0xbdf60da3bd0dbfbbU, 0xbd1b5946bda0fb26U,
  0x3e06e474bd8ced4eU, 0xbbc99f51bde2c299U, 0x3d9eaef03e08e4beU, 0xbd58801bbbcaceddU,
  0x3df85a44bddc92d6U, 0x3c7f8134bbc5d643U, 0xbdcd641dbd4f91abU, 0xbdc7c8103d18fb9eU,
  0xbd663f803d8d5771U, 0x3c4eb4063d9a3983U, 0xbd97ba8d3dc9d56aU, 0x3e21c06dbdc0e1b8U,
  0x3d4a5d83bd8c53d2U, 0xbe1767563ca5352aU, 0x3dc59873bdc9508eU, 0x3d8355ad3cd6b87cU,
  0xbca1164a3ab5c2f3U, 0xbd5d31fc3cadd191U, 0x3e2a83df3dc78479U, 0xbde2b8a93ccaf500U,
  0x3d3b2caa3dd586e3U, 0xbd9627bdbe0c66ebU, 0xbcaa67943ba9d428U, 0x3ccdb6d03ac02629U,
  0xbd8782edbaf8e3d4U, 0xbc8deb7b3e1f4f38U, 0x3d0df5533debbaf4U, 0x3db8eee7bb1c990cU,
  0xbe4625acbd138dbcU, 0xbd91a9593d4d6819U, 0xbdf3adc23c0be9e1U, 0xbd58eeedbe60330fU,
  0x3d832598bc1321f8U, 0xbd8a850a3d872093U, 0x3d01458dbd01ce34U, 0x3d4caaf53de6dbb5U,
  0xbbf846c2bd85ab13U, 0xbcd69fb03e0e5467U, 0x3a45ec4abdbe61f8U, 0xbe3db9b2be035477U,
  0xbe4e9153be4b23f8U, 0xbd39dafdbddc61a3U, 0xbde2e26e3d8dcd02U, 0x3c854c30bdd4e5f8U,
  0xbe2ddd2dbdbfae88U, 0xbeabb7183dab78a0U, 0xbdb334cabde71236U, 0xbd8eb2b4bd74b83fU,
  0x3de4e532be197c29U, 0xbb20c0d7be23708fU, 0xbd33387f3d8d8675U, 0xbde81658bdd05b9aU,
  0x3ceab8d33d9dd4b3U, 0xbd009051be2ed57cU, 0xbd84b2abbd8faacbU, 0xbdf4f31ab92dacecU,
  0xbe23a5d0be45454bU, 0x3d8925f5be0cedf9U, 0xbe6426e23d9d5d5bU, 0xbc62bbaa3ccfb3a5U,
  0xbcbd6687be27c06eU, 0xbe3ac3fd3cc6d13eU, 0x3d6bf1ce3d4213abU, 0xbe1ad9863dd193fbU,
  0x3cfc089ebd0591a8U, 0xbd2a8e853c8c6ebeU, 0xbe1bd41abd104252U, 0xbda02fefbda5d0aaU,
  0x3e03671b3d0171acU, 0xbc9d50e9be5d36d7U, 0xbdca31e13c44adf1U, 0xbd8640483df93e0bU,
  0x3d0a507d3cdd48ccU, 0x3d5792ed3db06953U, 0x3e1943a4bb8fb1beU, 0x3d6a1d9cbd235a19U,
  0xbdfc5f81bce31594U, 0xbc005ebcbd4836efU, 0xbda54e64be2b817fU, 0xbdb13fb7bd3acd79U,
  0xbd3eb02ebba89657U, 0x3d38e2e3bd462abcU, 0x3d79e5f63c6447f1U, 0xb9afa62dbd752a72U,
  0xbd0a14debd65774dU, 0xbd7dae253e4a48f7U, 0x3c1db6d8b99f15e7U, 0xbe1b9d81bd683a30U,
  0xbe2b950ebe0ef8f1U, 0xbd7f5d4fbda672c4U, 0xbdcd885fb9349bf0U, 0x3d6045afbd18daa5U,
  0xbe388f7dbd86410fU, 0xbe8090b63b7b59c4U, 0xbdff8e98bdeb09cbU, 0x3c349749bcaac023U,
  0x3dd22f823baebce0U, 0xbdc397ec3b2e2011U, 0xbe329fec3dfa4787U, 0xbd7e03fbbe0ad260U,
  0x3d971c93bdd91833U, 0xbbe900373d43aad9U, 0xbd02288ebde232c8U, 0xbd53eb9e3e0467f7U,
  0xbe3d6339bd56336dU, 0x3dec90f5bbe10520U, 0xbdf4f6723cd23198U, 0x3dac620c3c169381U,
  0xbd40abe6bbac9cc7U, 0xbdcaa6f23d66d6a4U, 0xbe428f91ba254beeU, 0x3dc3e67d3e040702U,
  0x3db3c96cbd9f010cU, 0x3cf0bef0be08ae57U, 0xbe35ad98bcc6b8eaU, 0xbcdbfd46bb72bebeU,
  0x3ae8e6a5bdeb97eeU, 0xbd53a094bdd8df51U, 0x3db0bfcebdf25e10U, 0xbdc43cc8bd190df3U,
  0xbd2eb8c2bd177c14U, 0x3d4a3a9e3d2d167eU, 0xbddae5df3cf82a2dU, 0x3d160160bc520884U,
  0xbca9a1df3d842eacU, 0x3d1bacc03d391c42U, 0x3db31c6a3e156f5dU, 0x3cf79e1c3dadbedaU,
  0x3cfe402abd19f905U, 0xbcf1c8da3cd961bfU, 0xbd942175bd58e1eaU, 0x3d3295023dbbd52eU,
  0xbc690534bd40eb63U, 0xbda544ee3c938ee2U, 0xbd5b78a8bce53a54U, 0x3dd0cebfbe454259U,
  0x3d2af7b7bdf84739U, 0x3e0e042e3d93f41eU, 0x3e0fa8403db868e8U, 0x3dc24f2fbe4009e5U,
  0xbce96e823d5eef55U, 0xbb09dda9bcd6d29bU, 0xbdba8930bcce6fdbU, 0xbd7afb53bd6310f5U,
  0x3db335083e4aa784U, 0xbd881d053dfb797dU, 0x3dd4d3abbe2ddd37U, 0x3e0a88943e27a167U,
  0x3c2571e2be27ce75U, 0x3d03316abd0db906U, 0x3bca7f6d3d10f662U, 0xbacbdb66be1d17aeU,
  0xbe5fb1e5be378b49U, 0xbe06c6673d98a286U, 0xbd557e3b3e0c00ddU, 0xbe2337e9be6f3471U,
  0xbcb7c8333c6ec5a7U, 0xbe84a1c23c57404aU, 0xbcf258d33dd84464U, 0xbd317b0cbd232260U,
  0x3d3bb57ebd3103b5U, 0xbda74d2ebd8b608eU, 0xbca5cacf3d374981U, 0x3e275c003c6cbd73U,
  0x3dd4b623bdaf183dU, 0xbdff50d83dcdfb74U, 0xbd80191abc89e311U, 0xbdb250b1be003a06U,
  0xbca68f57bd9bad0eU, 0xbe096fc2bdf974fcU, 0xbcb888c9bd6c4bf7U, 0xbd0a10ed3d2d9f59U,
  0x3db5be463cb490efU, 0x3d476e06bdc5d907U, 0x3c00fa96bb9bf351U, 0x3df4fdd2bd370169U,
  0x3db3b8903df235d9U, 0x3d10d870bc78ad23U, 0x3c126a90be2208e5U, 0x3d21fbfabce4c4acU,
  0x3db771303dd45919U, 0xbc1a5ff73b9b510cU, 0xbd9c3af4bd3a64d3U, 0x3d6a9a98be11c015U,
  0x3dd56b313d07dabdU, 0x3b2128a23d216757U, 0x3dd72f1a3e10d461U, 0x3d914a47bd948c9dU,
  0xbcea3f7b3d4e9645U, 0xbd03cabc3d300250U, 0x3c2b75c2bccebef0U, 0xbcfe5ad73cb86f0fU,
  0xbd10adc93e38c767U, 0xbd41c4f5bd24170cU, 0x3dbafdecbe3d540bU, 0xbd016a3c3e1b1382U,
  0xbbbdba93bd836581U, 0xbaf1ebae3d4e9834U, 0xbd2b0b643d95db73U, 0x3db0d46cbe585ba3U,
  0xbe2ffe47be86d4fbU, 0xbd320abb3dacfbe6U, 0xbb89a2bc3e0370bbU, 0xbd2f290dbe0400c9U,
  0x3d1b5d22bcc5f798U, 0xbe5a41d03dd58d95U, 0xbe1996ad3d5d6d58U, 0xbdba251abe3fafe5U,
  0x3da870b0bd920497U, 0xbde492c2bdccbbf8U, 0xbd1bea59be3b41e5U, 0x3de874a53cd998ccU,
  0xbdb4ebf4be1daa2dU, 0xbd836d6f3d7d257aU, 0xbd655cb4bcc39bbdU, 0xbd8c4950bd0dd81fU,
  0x3df86d85bc948034U, 0xbdc74d33bcdf8aa0U, 0xbd0556843d1f85c6U, 0xbd5345b2bdc44c71U,
  0xbb17fc583e006456U, 0xbd2209ddbd466733U, 0xbd50b3773dc827c9U, 0x3cbc2fd7bc4b24dbU,
  0x3d8d94123dc5184dU, 0x3cbb28d53d3c472fU, 0x3d746126bd8fbbdbU, 0x3c8c6f5a3d7d450bU,
  0x3db461fe3ceb5bffU, 0xbdcc041dbdc4afe9U, 0x3d3d00d8bda2978fU, 0x3d345ed8bdaa18a1U,
  0xbc9388553c76f622U, 0x3d14b788bcde2efaU, 0x3bfa7d303d32a283U, 0xbd0b50e5bd946e4eU,
  0xbccef3983dd945f5U, 0xbdfe37be3d86edecU, 0x3d1a4f8a3d9eb0d5U, 0xbb871adfbdafb348U,
  0x3dbed1913bca0db0U, 0xbd4078213d7cf5f5U, 0x3cab6975bdd86382U, 0x3dde790c3e0c95bcU,
  0x3d83ade93ca039deU, 0xbdef3ac03d424aa9U, 0x3d1dcfb63dd52601U, 0x3dfdf399be54a487U,
  0xbc775ce7be6e8d83U, 0x3dc9ec253b2b7ac5U, 0xbd3239ac3e2276edU, 0xbc970982be828955U,
  0xbe1d1fa0bddb308bU, 0xbd837be9bce1d3cfU, 0xbd6074443ca63715U, 0xbd864018be4e66c0U,
  0xbbd6e758bde42ff7U, 0xbd6bb0b93d47083bU, 0xbc9d6b91be28d02fU, 0x3e2fca293dc1b375U,
  0x3e0280dcbd9e1811U, 0xbbe63aa23da39d70U, 0xbda7049cbd9fd827U, 0xbdaaa7c7be45c277U,
  0x3ce4be13bce5a9dfU, 0xbde038b6be17bdfbU, 0xbdfeac2cbd9d9d56U, 0xbd7bfc5c3e390f50U,
  0x3d838adc3d6e988eU, 0x3d012eadbcd35013U, 0xbdbbb20a3d3bcdaaU, 0x3e1a6ea63dccaa48U,
  0x3c95d4ffbc7756ecU, 0x3c2ffc7d3d15037dU, 0xbda0df993d5b95ddU, 0xbde1db63bd9d9477U,
  0xbdc3e3e23d7ede29U, 0x3de189bebe434934U, 0x3d2c8f503c95fd5fU, 0x3d9d7bb5bd9ca243U,
  0xbcce8a2c3ccc2e21U, 0xbdb714acbd0c94abU, 0x3c121b40bd9dc564U, 0x3d7843a33daf56a5U,
  0x3d9cf9a23d00918fU, 0xbd760bf1bd4cc8f5U, 0xbdc1c2bdbd860a3aU, 0x3d7d53813d475c5cU,
  0xbdd129bdbddc78f4U, 0xbd09f279be006706U, 0x3d205c20bc4a0de4U, 0xbe361b21be2e192fU,
  0xbdb3925e3daf9bddU, 0x3d2f42f43ccd84e7U, 0x3d3f31c1bd56aa38U, 0x3d8c8a303d85feecU,
  0xbcdea3523d2fea18U, 0x3d4b4ab5bb2360c5U, 0x3d28f88fbc8afab0U, 0x3dc036d43df07efbU,
  0x3c937dc33c0e33a4U, 0xbdd5995c3daf3435U, 0xbde20ecfbdbacab1U, 0x3bf85f60bd039e67U,
  0xbdde64b3bdbd66daU, 0xbddf97c5be0b5e1fU, 0xbb1cb96d3d8d20acU, 0xbda20a8abe106368U,
  0xbb147855bd14f742U, 0x3d72fbe23d901d9cU, 0xbc45d1e4bda15577U, 0xbceeb05a3da9d014U,
  0xbdde058f3c0929e7U, 0xbe403b27bdb842aaU, 0xbd834b55be0668b9U, 0x3d1687793e267036U,
  0x3c56eaeb3d0fd98eU, 0x3dd505a4bd090611U, 0xbd642f7b3d0e7415U, 0x3e32d328bcb3b19bU,
  0x3c6141d3be4ae667U, 0xbb99b3da3c93bf91U, 0xbd9949ff3c77dc87U, 0xbe9056e5bde615d1U,
  0xbd3cef593e49b862U, 0xbb3da98fbe4a36d1U, 0x3e0a85b9b9a81bb8U, 0x3dc4d2773d8f2a24U,
  0xbdd552313d88f2e6U, 0xbde17c80bc1064b5U, 0xbde769d1bcf9298fU, 0x3e63f6e33e652a84U,
  0x3d2a62dc3d0f163fU, 0xbbf6f5a1bdd885baU, 0xbe833defbce12fdcU, 0x3e41cff0bd1d4a38U,
  0x3cf919bcbda0443cU, 0xbe255b17be27e090U, 0x3e20dbaabde94bc4U, 0xbe7730b2be870eb9U,
  0xbde25ee23dbf275eU, 0x3da768a6bddaa1a0U, 0xbb950c243b13c4eeU, 0x3e3a5734bdb6438dU,
  0x3d7550943d87b6e6U, 0x3d4b3f17bd639f1cU, 0x3d595dbc3c6b3087U, 0x3e04f8abbbd17b9aU,
  0x3d74d65fbcc8d80bU, 0xbe21acd8bda8ec9bU, 0xbdd4121cbd80c1cbU, 0x3c4556023d85daacU,
  0x3c6687593d6981feU, 0xbd34e5b1bdfd1f4bU, 0x3d514c6f3d7e350cU, 0xbc950b0bbe846df2U,
  0xbd5049cebdae4cb1U, 0x3e0c5cd1bb9c0ad1U, 0xbbe18aecbdc1f885U, 0xbc9781e03c810894U,
  0x3c8d55973d90073aU, 0xbd62c4fdbd813458U, 0xbe21c24bbe5c07f6U, 0x3dad84fa3e2c9425U,
  0x3cbb4eeebdbf183aU, 0x3e0523d13d1a82eaU, 0x3dc186e4bda4053aU, 0x3d692f78bd9a9ab9U,
  0xbd3c9fc9be144925U, 0xbd2bf1c7bcfd0ce2U, 0xbd17d7bebd7aab6fU, 0xbe46ad383ce14201U,
  0x3d8774f43e6ad370U, 0xbd12b031bdead9b3U, 0x3daf50e5bc736e1bU, 0x3d3733e73d9244e7U,
  0x3ce540f03daa9fbeU, 0xbd92be5dbd4dbde1U, 0x3a532c47bddc2589U, 0x3e484e233e436495U,
  0x3e187815bd6a393dU, 0xbd128df83d1ae516U, 0xbdb261cbbd36fea1U, 0x3d7061ebbe27fd54U,
  0xbe10621ebe171a62U, 0x3d23dc69bdb1e45dU, 0x3e382d54bcf1374fU, 0xbe6a9f9e3c275ff8U,
  0xbdd3edf43df0f94aU, 0x3d9c692ebde8b9b4U, 0x3dc68098bd77ac8eU, 0x3e51d34fbb484be8U,
  0x3dfc41923d4bdc6cU, 0xbd56e1b83d515b88U, 0xbd104b5a3d44f576U, 0x3e318eb03dc2c33fU,
  0x3e03df50bd85f80dU, 0xbdfa05553d59848eU, 0xbde410e1be0b9d7cU, 0xbd9e87173c8d47dcU,
  0xbdeb85a23dd57200U, 0xbd3fbd6ebe2d51abU, 0x3e30340d3d84220bU, 0xbdea745ebd0f655eU,
  0x3c97646abd4897c7U, 0x3d7453b13ddafb63U, 0x3d2470f4bd990095U, 0xbd17aaa1bda4a0bfU,
  0x3ca544fe3d86eb9aU, 0x3d9050353cf72466U, 0x3bce4d00bdc473a3U, 0x3d1564733d0f2fddU,
  0x3e0e32593c9647e0U, 0x3da60ef03dff6c72U, 0xbd7360783d81afb8U, 0x3db3b6e93beb26f3U,
  0x3cf1f230bd39cdfeU, 0xbdbe23fbbcd5938fU, 0xba1f9ba7bdb44a97U, 0xbd1fd3f9bc8bef3cU,
  0xbdd6e4273e806db9U, 0x3dfe2d1a3aee6d49U, 0x3b77c0b43e0e3a5eU, 0xbe1da1443e42e4f9U,
  0x3dea57a13e316675U, 0xbd0d1cb23dd904cfU, 0xbdfe700a3d4dff54U, 0x3dd377483de50fa7U,
  0x3d2d43293d1fcaedU, 0xbd250450be81c2dcU, 0x3d23171c3e1301fbU, 0x3ad728e9bd85e22eU,
  0x3c88435a3cae2dc4U, 0x3d9355a7bd1d1c8cU, 0xbdb13179be8742aaU, 0x3df1bbbfbc502680U,
  0xbe8362243e26e6ccU, 0x3e2a50a43c8547cfU, 0xbde406793d6d040dU, 0xbe03579e3e8b0366U,
  0x3d81bfaf3da34d20U, 0x3de986f83c98d3fbU, 0xbd5b4d393ce55fa5U, 0x3e4cf33e3d2c0c78U,
  0xbc21466f3d58b785U, 0xbde187fdbceace8cU, 0xbd47ebd13da0d7e8U, 0x3d5dfdaabd9b6115U,
  0xbd26ac9ebda6fe7dU, 0x3c8281aa3d358433U, 0xbc9ac7963e224202U, 0x3c1886643d0d44fdU,
  0xbce8520f3e127f11U, 0x3d0ade5b3d0776bcU, 0x3b21efd0bdb3f596U, 0xbd933e5bbcc46c59U,
  0x3ddced58bdc603aeU, 0x3d8f3c8e3c605fd6U, 0x3b1ae902bdbb727cU, 0xbdb3b3ac3ca0a1ddU,
  0x3d083c62bd13d0c6U, 0x3d599dbebc85e726U, 0x3c05b9c9bdd4c40fU, 0x3e3e0e473d1b7cd9U,
  0x3e2422bf3a183de1U, 0x3c94e8e13d1bd97cU, 0x3d32f90dbde6ba4dU, 0x3dcde15bbdd27d21U,
